<unk>	0
<s>	0
</s>	0
<pad>	0
.	-2.43578
'	-3.11524
s	-3.73363
▁I	-3.92354
▁	-4.26252
t	-4.35515
▁you	-4.39823
▁to	-4.44067
▁de	-4.44744
▁a	-4.44902
-	-4.54456
▁Je	-4.56631
▁the	-4.72171
?	-4.73593
▁pas	-4.74794
▁?	-4.79733
,	-4.90094
▁que	-4.95517
à	-5.01144
▁Tom	-5.01652
▁me	-5.11357
▁ne	-5.17091
▁la	-5.19627
▁le	-5.20458
▁Il	-5.21098
▁is	-5.31139
ai	-5.38033
▁l	-5.39646
▁n	-5.41955
re	-5.43078
▁vous	-5.4573
▁est	-5.50219
▁J	-5.52279
e	-5.53497
est	-5.53782
▁un	-5.58288
▁of	-5.61498
▁d	-5.64925
▁You	-5.65994
▁He	-5.66152
▁in	-5.67806
m	-5.70189
a	-5.77178
▁it	-5.7774
▁that	-5.78266
▁ce	-5.78814
d	-5.78817
▁en	-5.80871
il	-5.85513
▁have	-5.86202
▁for	-5.94262
▁was	-5.94475
n	-5.95686
▁une	-5.9909
vous	-5.99628
▁do	-6.02765
▁be	-6.02944
▁don	-6.03624
▁je	-6.04531
▁your	-6.0482
▁Elle	-6.05075
tu	-6.05572
▁not	-6.06334
▁pour	-6.07658
▁suis	-6.0815
▁C	-6.1065
▁this	-6.13415
▁want	-6.14459
▁The	-6.15912
▁can	-6.17279
▁We	-6.19024
▁!	-6.19459
▁les	-6.19552
▁She	-6.2059
▁my	-6.21497
▁qu	-6.26858
▁like	-6.29859
▁Nou	-6.30275
▁tu	-6.3078
▁on	-6.31368
▁Vous	-6.36311
▁Tu	-6.37265
▁faire	-6.37426
▁m	-6.38124
▁s	-6.3813
▁with	-6.39646
▁are	-6.39844
▁know	-6.41621
r	-6.4204
es	-6.4346
▁nous	-6.45564
▁dans	-6.45926
▁It	-6.46193
y	-6.47032
ed	-6.47608
▁plus	-6.4935
▁him	-6.51064
▁se	-6.53199
en	-6.53369
▁te	-6.55955
er	-6.57687
▁all	-6.57774
ing	-6.5813
▁what	-6.58758
▁he	-6.60244
▁veux	-6.60883
▁go	-6.61166
▁du	-6.6119
ll	-6.62061
▁What	-6.63756
ve	-6.64032
é	-6.64406
▁fait	-6.65351
▁his	-6.65912
▁au	-6.66829
▁des	-6.67563
▁at	-6.68191
ce	-6.69508
▁think	-6.71239
▁as	-6.71904
▁avec	-6.72543
▁qui	-6.73241
▁They	-6.73355
▁Do	-6.77861
▁Le	-6.7852
▁time	-6.82395
▁about	-6.84057
▁tout	-6.84586
▁and	-6.8574
▁son	-6.87455
▁ça	-6.88064
▁Ce	-6.8955
▁sont	-6.90217
▁mon	-6.92021
▁here	-6.92616
▁lui	-6.92719
▁did	-6.93599
▁her	-6.93657
▁et	-6.93681
▁very	-6.94444
▁had	-6.95066
▁out	-6.95138
▁get	-6.9624
▁up	-6.97235
▁we	-6.98081
▁Ne	-6.98772
▁Don	-6.99133
▁How	-7.00556
▁sur	-7.02338
▁were	-7.02489
▁si	-7.03137
▁j	-7.03412
▁will	-7.03704
▁La	-7.03712
▁This	-7.03953
▁vot	-7.03956
▁être	-7.04022
▁didn	-7.04127
▁y	-7.04402
▁That	-7.05411
▁Mary	-7.05754
▁temps	-7.06013
f	-7.07005
▁just	-7.07129
▁has	-7.0757
▁très	-7.07931
▁c	-7.10383
▁moi	-7.10545
un	-7.11322
▁été	-7.11752
▁êtes	-7.12537
▁t	-7.12747
▁par	-7.13608
▁pense	-7.14217
▁chose	-7.15516
▁one	-7.15832
▁so	-7.16521
▁peux	-7.16982
▁Les	-7.17836
ez	-7.18563
▁dit	-7.20463
▁should	-7.20514
▁an	-7.20921
▁no	-7.21461
▁going	-7.22233
▁Are	-7.23152
▁était	-7.23764
▁jamais	-7.24273
▁A	-7.24585
▁ici	-7.25529
▁good	-7.27465
▁train	-7.28391
▁by	-7.285
▁need	-7.2888
▁ma	-7.30287
▁see	-7.30761
▁from	-7.31256
cette	-7.31782
▁bien	-7.31858
▁would	-7.32155
i	-7.32995
▁My	-7.33228
▁us	-7.33552
▁could	-7.33569
z	-7.35364
▁il	-7.35846
▁vraiment	-7.35855
▁there	-7.3586
▁sa	-7.36548
▁come	-7.37297
▁tell	-7.37613
▁dire	-7.38025
▁really	-7.39599
▁quelque	-7.39747
▁L	-7.39849
▁more	-7.41053
ly	-7.41149
▁sais	-7.41274
▁help	-7.41464
je	-7.41965
▁been	-7.43092
▁does	-7.43851
▁toi	-7.44094
c	-7.44342
ment	-7.44478
▁es	-7.45311
▁ton	-7.46223
on	-7.46408
▁Pourquoi	-7.46601
▁Why	-7.47979
moi	-7.48837
▁never	-7.49838
▁if	-7.4988
▁besoin	-7.52848
▁now	-7.54392
▁sommes	-7.54729
▁got	-7.55916
elle	-7.55948
▁There	-7.5609
▁something	-7.57023
▁too	-7.57447
▁car	-7.5764
▁but	-7.58266
le	-7.58347
p	-7.5848
ons	-7.58939
▁tous	-7.59073
▁Commen	-7.59153
▁right	-7.5981
▁than	-7.6002
▁Ça	-7.60788
l	-7.61218
▁aller	-7.61962
▁S	-7.61971
nt	-7.62088
▁avez	-7.62147
as	-7.62233
▁ont	-7.6258
▁much	-7.63032
▁she	-7.63297
in	-7.63619
▁cela	-7.63674
▁make	-7.63849
▁am	-7.64606
▁beaucoup	-7.64907
▁work	-7.65258
▁peut	-7.65276
▁take	-7.65308
▁avons	-7.65775
▁Can	-7.65919
▁how	-7.66571
▁parler	-7.67011
▁O	-7.67044
!	-7.67263
▁some	-7.67499
aime	-7.67544
▁thought	-7.68526
▁là	-7.6884
▁maison	-7.69867
g	-7.70971
▁trop	-7.71806
▁peu	-7.72325
▁va	-7.72477
▁quoi	-7.72683
▁On	-7.73294
▁rien	-7.7337
▁voir	-7.73508
▁any	-7.73732
▁deux	-7.73872
▁home	-7.7391
▁money	-7.74023
▁when	-7.74052
▁ai	-7.75082
être	-7.75097
▁toujours	-7.75492
▁Did	-7.75492
▁say	-7.7563
▁Let	-7.7657
▁Qu	-7.76603
▁back	-7.76757
▁monde	-7.77243
▁ta	-7.77388
▁last	-7.77393
▁encore	-7.77915
▁long	-7.78585
▁faut	-7.7879
▁bon	-7.79006
o	-7.79787
▁they	-7.7992
ent	-7.8013
▁mais	-7.80248
▁comme	-7.804
▁voiture	-7.80757
▁anything	-7.809
était	-7.81419
it	-7.81543
▁day	-7.81676
▁soit	-7.81976
▁talk	-7.82526
▁feel	-7.83543
▁made	-7.85269
air	-7.85372
▁avoir	-7.87158
u	-7.87419
▁Please	-7.87463
▁way	-7.87522
▁love	-7.87947
▁Est	-7.88081
▁must	-7.88238
al	-7.89157
is	-7.894
▁Tout	-7.89691
▁vu	-7.90105
aimerais	-7.90214
▁who	-7.90712
une	-7.90758
argent	-7.91203
▁Mon	-7.9122
ur	-7.91458
▁went	-7.91528
ant	-7.91921
▁fois	-7.92442
▁believe	-7.93009
▁lot	-7.93495
▁travail	-7.93867
▁Que	-7.94233
▁Si	-7.94692
▁look	-7.94768
▁N	-7.94813
▁As	-7.94828
▁aussi	-7.94968
▁Where	-7.95076
▁people	-7.95485
▁off	-7.95714
▁juste	-7.9611
▁sure	-7.96822
▁told	-7.97181
▁vais	-7.97214
able	-7.99279
étais	-7.99371
▁better	-7.99621
▁eu	-8.00309
▁dois	-8.00456
ù	-8.00721
▁avait	-8.01042
hui	-8.01802
▁house	-8.021
▁porte	-8.02914
▁give	-8.03603
▁Have	-8.03765
▁même	-8.04527
▁happy	-8.05119
▁said	-8.05128
▁book	-8.05129
▁eat	-8.05448
▁still	-8.0575
b	-8.05939
▁night	-8.06111
la	-8.06374
▁chez	-8.06524
▁only	-8.06546
ra	-8.06913
▁before	-8.06976
▁always	-8.07602
▁over	-8.07824
▁ses	-8.08657
▁school	-8.08866
▁pensais	-8.09016
▁again	-8.09155
avez	-8.09361
▁où	-8.09372
▁our	-8.10073
eux	-8.10082
▁maintenant	-8.10309
▁many	-8.10782
ait	-8.10976
▁job	-8.11282
▁down	-8.12101
▁livre	-8.1223
ch	-8.12305
or	-8.13053
▁P	-8.13267
▁moment	-8.13432
▁today	-8.1359
▁Ma	-8.13665
’	-8.13757
▁room	-8.13983
▁part	-8.14359
▁man	-8.14563
▁Who	-8.1457
▁well	-8.14688
▁V	-8.1482
▁hier	-8.15109
▁little	-8.15443
▁père	-8.15605
te	-8.15793
▁new	-8.16144
▁mal	-8.1622
▁old	-8.16413
▁No	-8.16422
▁them	-8.16704
▁déjà	-8.17329
▁question	-8.17578
▁seul	-8.17711
▁Boston	-8.18373
▁mes	-8.19388
▁mieux	-8.19429
▁won	-8.19789
avais	-8.19964
▁grand	-8.19989
▁toutes	-8.20457
▁or	-8.20619
▁father	-8.20675
▁alone	-8.20675
▁doing	-8.21003
▁T	-8.2132
ée	-8.21356
ci	-8.21473
▁aujourd	-8.21572
▁leave	-8.21588
▁hard	-8.21617
ette	-8.21982
▁elle	-8.22025
que	-8.22715
▁personne	-8.22828
À	-8.22847
▁parents	-8.2285
▁saw	-8.22886
▁vie	-8.2292
▁prendre	-8.23136
arrive	-8.23397
▁vo	-8.23406
▁When	-8.23421
▁happened	-8.23849
▁yesterday	-8.2395
▁bonne	-8.24051
▁please	-8.24571
▁into	-8.24788
▁assez	-8.25144
▁Avez	-8.25254
▁Un	-8.25613
▁two	-8.2583
▁where	-8.26131
▁bus	-8.26551
▁simplement	-8.26781
▁put	-8.27396
▁find	-8.2761
▁re	-8.2768
▁gens	-8.28108
▁Qui	-8.28186
▁devrais	-8.28301
▁fais	-8.28369
▁Personne	-8.29075
▁left	-8.29099
▁tomorrow	-8.2927
▁sans	-8.29484
▁enough	-8.29666
▁toute	-8.2969
▁wanted	-8.302
▁understand	-8.30504
▁fut	-8.30604
▁nuit	-8.30653
▁Combi	-8.3224
▁demain	-8.32307
▁hope	-8.32353
▁friend	-8.32642
▁sens	-8.32738
▁place	-8.32785
▁avant	-8.33144
▁aux	-8.33159
nous	-8.33473
▁point	-8.33496
▁problème	-8.3396
▁ever	-8.34291
▁manger	-8.34429
▁dog	-8.34621
k	-8.3464
▁speak	-8.34733
▁partir	-8.3496
▁dû	-8.35068
▁savoir	-8.35262
▁ou	-8.35475
▁Êt	-8.35509
▁friends	-8.35655
ro	-8.36192
▁enfants	-8.36387
▁quand	-8.36392
▁asked	-8.36504
▁away	-8.36634
▁Quel	-8.36741
▁plaît	-8.36974
▁suppose	-8.37057
école	-8.37058
▁plan	-8.37186
▁door	-8.37731
▁chien	-8.37806
▁après	-8.38159
▁jour	-8.38488
ne	-8.38742
▁soir	-8.39165
▁every	-8.39266
▁pu	-8.39533
▁live	-8.40866
▁pris	-8.40969
▁everything	-8.4106
▁stay	-8.4123
autre	-8.41303
▁heures	-8.41457
ils	-8.41461
eau	-8.41872
▁done	-8.42143
▁Would	-8.42164
▁remember	-8.42166
▁dis	-8.42389
▁ask	-8.42701
▁pouvez	-8.42832
▁comment	-8.43159
▁why	-8.4328
▁petit	-8.43662
▁mère	-8.43701
ation	-8.43892
▁sorry	-8.43956
▁late	-8.44348
▁read	-8.4436
▁call	-8.45056
▁ceci	-8.45262
▁Puis	-8.45558
▁problem	-8.45725
▁next	-8.45815
▁name	-8.45849
▁Marie	-8.46248
▁venir	-8.4706
▁dernière	-8.47171
▁may	-8.48113
▁busy	-8.48302
th	-8.48316
▁first	-8.48345
▁"	-8.48613
▁D	-8.48902
▁fille	-8.49135
h	-8.49531
▁mind	-8.49773
▁after	-8.50011
▁anyone	-8.50554
▁croire	-8.50735
▁other	-8.50803
▁life	-8.50985
▁voulez	-8.51706
▁wrong	-8.51706
▁His	-8.51796
▁chance	-8.51942
▁being	-8.52151
▁nouveau	-8.52424
▁hear	-8.52547
▁veut	-8.52689
▁mother	-8.5269
êtes	-8.52861
ir	-8.52932
▁thing	-8.53307
ont	-8.53309
▁dé	-8.53413
▁keep	-8.53679
▁buy	-8.53849
▁raison	-8.53932
▁kind	-8.54175
▁passé	-8.54194
▁French	-8.54429
▁trois	-8.54434
▁English	-8.5468
èrent	-8.55216
espère	-8.55423
▁rendre	-8.55643
▁things	-8.5583
▁pourquoi	-8.55946
▁nothing	-8.55948
▁prie	-8.56186
▁came	-8.56441
▁français	-8.56457
▁En	-8.56813
▁without	-8.57015
▁took	-8.57124
avoir	-8.57203
▁teacher	-8.57253
▁accident	-8.57321
aider	-8.57529
▁their	-8.57631
▁voulais	-8.57746
▁three	-8.5775
▁idea	-8.58
▁quelques	-8.58039
▁drink	-8.58119
▁b	-8.58164
▁care	-8.58204
▁tes	-8.58657
▁play	-8.58903
▁week	-8.5905
▁yet	-8.59075
▁Quelle	-8.59426
▁heard	-8.59435
▁wish	-8.59579
▁De	-8.59668
▁nom	-8.59998
▁rester	-8.6013
▁ami	-8.60266
▁choses	-8.60768
▁gav	-8.60974
▁sait	-8.61176
▁bad	-8.61214
▁children	-8.61446
▁Quan	-8.61572
▁seule	-8.62064
▁answer	-8.6212
▁show	-8.62161
▁semble	-8.62249
▁heureux	-8.62261
▁water	-8.62288
x	-8.62376
▁Es	-8.624
an	-8.62524
▁quelqu	-8.62525
▁try	-8.62737
▁seen	-8.6278
▁ans	-8.62826
▁important	-8.63199
▁tôt	-8.63226
▁questions	-8.6351
▁used	-8.63942
se	-8.64397
▁lost	-8.64451
▁years	-8.64453
▁jours	-8.64462
▁All	-8.65274
▁entendu	-8.65295
▁found	-8.65717
iez	-8.65925
aurais	-8.66017
▁lorsqu	-8.66255
▁B	-8.66471
▁idée	-8.66565
▁use	-8.66599
pendant	-8.66858
▁looking	-8.67029
▁trouver	-8.67329
▁dur	-8.68096
▁already	-8.68123
▁Your	-8.68538
▁sûr	-8.68735
w	-8.6876
▁soon	-8.69114
ar	-8.69218
▁best	-8.69301
▁parle	-8.69387
▁minutes	-8.69667
▁non	-8.69868
▁chambre	-8.70158
▁matter	-8.70168
▁police	-8.70172
▁homme	-8.7028
▁change	-8.70457
▁tired	-8.70511
▁ra	-8.70837
▁even	-8.70909
▁Son	-8.70991
▁morning	-8.71043
▁table	-8.71237
age	-8.71288
▁May	-8.71358
▁around	-8.71638
▁same	-8.71683
▁cha	-8.71778
▁lit	-8.71866
▁frère	-8.72236
▁retard	-8.72236
▁mort	-8.72434
▁arrivé	-8.72616
▁peur	-8.727
▁often	-8.72881
▁big	-8.72883
ie	-8.72986
▁stop	-8.73137
▁brother	-8.73139
▁difficile	-8.73139
▁yourself	-8.73139
▁fête	-8.73187
▁amis	-8.73731
▁let	-8.73947
▁Could	-8.74051
▁matin	-8.74639
▁party	-8.7465
▁demandé	-8.74688
lo	-8.74734
▁bed	-8.74859
▁femme	-8.75079
▁cold	-8.75605
▁depuis	-8.75626
▁knew	-8.759
▁hurt	-8.759
▁open	-8.7637
▁Be	-8.7648
▁trouve	-8.76507
▁jusqu	-8.76848
▁might	-8.77207
▁passe	-8.77218
▁tard	-8.77518
▁haven	-8.78093
▁davantage	-8.78102
▁afraid	-8.7842
▁while	-8.7842
▁myself	-8.78739
uch	-8.78871
▁great	-8.7906
▁leur	-8.79243
▁quelle	-8.79313
▁perdu	-8.7943
▁nice	-8.7962
▁souvent	-8.79741
▁secret	-8.80026
▁sera	-8.80133
▁pensé	-8.80452
▁married	-8.80678
▁wasn	-8.80935
▁lire	-8.80951
▁main	-8.80967
▁moins	-8.81039
▁these	-8.81329
▁autre	-8.81403
▁sois	-8.81487
▁ready	-8.81557
ici	-8.82133
▁own	-8.82326
tte	-8.82347
▁aider	-8.8264
▁year	-8.84052
elles	-8.84277
▁Pouv	-8.8471
▁happen	-8.84737
▁pièce	-8.85012
▁mis	-8.85094
▁lettre	-8.85363
▁fun	-8.85433
▁ces	-8.8553
cause	-8.85671
▁sleep	-8.85744
▁sujet	-8.8604
▁possible	-8.86079
▁walk	-8.8609
▁ville	-8.86159
même	-8.86435
▁fort	-8.86445
▁else	-8.86731
▁é	-8.86797
▁grande	-8.8693
ions	-8.86977
▁few	-8.87078
▁M	-8.87158
▁letter	-8.87177
▁demande	-8.87245
ou	-8.87444
ge	-8.87596
▁pourrait	-8.87603
▁sœur	-8.87776
▁crois	-8.87787
▁Une	-8.87796
▁soyez	-8.87876
▁wait	-8.88192
▁early	-8.88487
getting	-8.88548
▁heure	-8.88548
▁food	-8.88832
▁trouvé	-8.88832
▁semaine	-8.88951
▁young	-8.8911
▁pouvons	-8.89187
▁sortir	-8.89214
▁pay	-8.89303
ul	-8.89548
▁passer	-8.89568
▁sister	-8.89923
▁étaient	-8.90029
▁fini	-8.902
▁beautiful	-8.90258
▁coup	-8.90467
▁doctor	-8.90618
▁bought	-8.90623
▁longtemps	-8.90624
▁photo	-8.9078
▁glad	-8.90979
ther	-8.91159
▁attention	-8.91482
toi	-8.9158
▁far	-8.92002
▁vrai	-8.92074
▁talking	-8.92119
▁téléphone	-8.92202
▁coming	-8.92252
▁ré	-8.92263
▁looks	-8.92451
▁allé	-8.9271
accord	-8.92881
▁f	-8.92891
▁travailler	-8.93098
che	-8.93148
▁meet	-8.9326
heure	-8.93636
▁write	-8.94499
▁hate	-8.94587
▁true	-8.94715
▁jouer	-8.95043
▁acheté	-8.95416
▁watch	-8.955
▁nouvelle	-8.95713
▁presque	-8.95796
▁occupé	-8.95901
end	-8.95929
ive	-8.95988
▁turn	-8.96072
▁devriez	-8.96175
▁another	-8.96175
▁dinner	-8.96175
▁arrive	-8.96558
au	-8.96817
▁jeune	-8.97185
ver	-8.97256
▁con	-8.97377
ignore	-8.97423
be	-8.97513
▁café	-8.9771
▁journée	-8.97714
▁vue	-8.98372
ion	-8.98395
▁Get	-8.9849
▁ten	-8.99316
ad	-8.9951
▁aime	-8.99583
us	-8.99601
▁faites	-8.99857
▁careful	-9.00007
▁felt	-9.00059
▁rain	-9.00115
▁parti	-9.00262
▁boy	-9.00314
ique	-9.00342
▁spend	-9.00461
▁days	-9.0062
adore	-9.00637
▁Sa	-9.01015
▁manière	-9.0126
▁station	-9.01261
▁world	-9.01656
▁enjoy	-9.01656
▁film	-9.01713
▁tellement	-9.01734
▁word	-9.01776
▁mine	-9.01795
avons	-9.02075
▁petite	-9.02181
▁once	-9.02313
▁person	-9.024
▁books	-9.02886
▁plu	-9.02968
▁bureau	-9.0328
▁hand	-9.03361
▁girl	-9.0379
▁almo	-9.04091
▁famille	-9.041
▁coffee	-9.041
▁Peu	-9.04277
▁livres	-9.0507
▁désolé	-9.05304
▁doit	-9.05309
▁vérité	-9.05345
▁gone	-9.05608
ic	-9.05654
▁tried	-9.05763
▁meeting	-9.05923
▁cet	-9.06081
▁tonight	-9.06209
▁déjeuner	-9.06248
aient	-9.06344
▁garçon	-9.06349
▁tennis	-9.06605
▁run	-9.06786
▁Tak	-9.06838
▁truth	-9.07032
▁cat	-9.07103
▁quel	-9.07464
▁finished	-9.0756
▁mean	-9.07726
▁propos	-9.07855
▁anymore	-9.07882
▁drive	-9.08149
▁face	-9.08165
▁mot	-9.08237
▁connais	-9.08253
▁child	-9.0831
▁Everyone	-9.08311
▁g	-9.08315
▁aren	-9.08362
▁together	-9.09175
▁déteste	-9.09176
▁combi	-9.09176
ting	-9.09226
▁forget	-9.09419
▁seems	-9.09575
▁someone	-9.09611
▁cause	-9.09642
▁dix	-9.09739
▁started	-9.09764
▁yeux	-9.09857
▁venu	-9.0998
▁devons	-9.10046
▁Just	-9.10055
▁start	-9.10228
▁partie	-9.10245
▁viens	-9.10501
▁Not	-9.10769
▁light	-9.10834
▁Does	-9.10909
▁donné	-9.10948
▁E	-9.11253
▁certain	-9.1169
aide	-9.11813
▁looked	-9.11863
▁Will	-9.11903
▁aucun	-9.12387
▁F	-9.12846
▁eyes	-9.13039
▁ainsi	-9.13158
▁voulait	-9.1361
▁quit	-9.13712
▁aucune	-9.13745
▁pretty	-9.14065
▁froid	-9.14065
▁écrit	-9.1423
▁belle	-9.1435
apprécie	-9.14371
▁enfant	-9.14457
▁Veuillez	-9.14521
▁close	-9.14524
aller	-9.14975
▁«	-9.14984
▁sick	-9.15048
▁meilleur	-9.15414
▁family	-9.15441
▁travaille	-9.15699
▁prêt	-9.15826
▁dernier	-9.15904
▁médecin	-9.15904
▁réponse	-9.15904
▁compte	-9.15976
▁working	-9.16065
um	-9.16084
▁weather	-9.16369
▁savais	-9.16443
▁tête	-9.16506
▁waiting	-9.16553
ies	-9.16625
▁joue	-9.16628
▁phone	-9.16893
▁free	-9.16914
▁demander	-9.17115
▁fit	-9.17201
▁malade	-9.1732
▁learn	-9.17485
▁study	-9.17638
▁each	-9.17781
▁voyage	-9.17914
▁most	-9.17968
▁Tell	-9.18061
▁aide	-9.18064
▁donner	-9.18181
▁colère	-9.18251
▁vieux	-9.18283
▁died	-9.18576
▁both	-9.18603
eur	-9.18693
sse	-9.18701
▁boire	-9.18735
▁wife	-9.19206
▁comprendre	-9.19351
▁vit	-9.19483
de	-9.19535
▁p	-9.19622
▁sûre	-9.1963
▁voudrais	-9.19688
▁mettre	-9.19698
▁reste	-9.19803
ous	-9.20045
▁Tou	-9.20134
▁tant	-9.20438
▁situation	-9.20656
if	-9.20664
▁sous	-9.20676
▁chat	-9.20679
▁visit	-9.20691
▁attend	-9.20742
▁ran	-9.20775
ut	-9.20971
▁fatigué	-9.21231
▁étiez	-9.21237
▁figure	-9.21584
▁lunch	-9.21634
▁mangé	-9.21634
▁devez	-9.21643
▁met	-9.21737
▁seem	-9.2183
▁chemin	-9.22126
▁easy	-9.22126
ever	-9.22342
▁rest	-9.22418
▁près	-9.22509
▁vite	-9.22532
▁nourriture	-9.22621
▁Cel	-9.22656
."	-9.22688
▁pouvoir	-9.23118
▁restaurant	-9.23118
▁Stop	-9.23619
ure	-9.23717
▁visite	-9.23844
▁nager	-9.24208
▁seulement	-9.24258
▁miss	-9.24281
▁comprends	-9.24314
▁Quelqu	-9.24536
▁danger	-9.24579
▁vivre	-9.24626
▁Merci	-9.24626
▁six	-9.24788
▁heureuse	-9.248
▁trying	-9.24884
▁swim	-9.25133
▁Tokyo	-9.25134
▁bientôt	-9.25195
▁anybody	-9.25276
▁lieu	-9.25429
aux	-9.25596
▁alors	-9.25644
▁laissé	-9.25644
▁fils	-9.25683
▁end	-9.25996
▁pourrais	-9.26019
▁mauvais	-9.2612
▁caught	-9.26157
là	-9.26239
▁advice	-9.26672
▁côté	-9.26672
▁everyone	-9.26673
▁game	-9.26676
▁under	-9.26687
▁puisse	-9.26941
té	-9.27085
▁Laisse	-9.27127
▁fire	-9.27156
▁Whi	-9.27195
▁loin	-9.27328
▁personnes	-9.2765
▁premier	-9.27711
▁vélo	-9.27711
▁guess	-9.27713
▁R	-9.27748
▁fast	-9.28096
▁near	-9.2812
▁Japon	-9.28195
▁Japan	-9.28234
midi	-9.28236
▁trouble	-9.28236
▁fell	-9.28238
oulez	-9.28244
▁office	-9.28254
▁wants	-9.28354
▁entre	-9.28362
▁students	-9.28372
▁reading	-9.28556
▁window	-9.28763
▁stupid	-9.28786
▁celui	-9.28876
ement	-9.28923
anglais	-9.28952
▁anglais	-9.29098
▁trust	-9.29155
▁réunion	-9.2929
▁contre	-9.29299
▁Give	-9.293
▁having	-9.29384
▁regarder	-9.29475
▁»	-9.29512
▁vois	-9.29769
▁wonder	-9.29818
▁appreciate	-9.29822
▁story	-9.29822
▁advised	-9.29871
▁mange	-9.29892
▁longer	-9.29916
▁amie	-9.30142
▁called	-9.30183
▁high	-9.30296
▁confiance	-9.30359
▁since	-9.30362
▁ensemble	-9.30414
ity	-9.30447
▁broke	-9.30635
▁small	-9.30754
less	-9.30892
▁conduire	-9.30894
▁reason	-9.30895
▁Come	-9.30896
▁devrait	-9.30901
▁autant	-9.30901
▁plait	-9.30906
▁serais	-9.31184
▁picture	-9.31229
▁piano	-9.31435
▁W	-9.31442
▁those	-9.31473
▁ferais	-9.31485
▁agree	-9.3167
▁surprised	-9.31803
▁bicycle	-9.31964
▁large	-9.32029
importe	-9.32218
▁minute	-9.32347
▁gare	-9.32368
▁stand	-9.32387
▁Nobody	-9.32525
▁gr	-9.32625
venir	-9.32731
▁oublié	-9.33075
▁Japanese	-9.33075
▁verre	-9.33085
▁hair	-9.33107
▁feu	-9.33124
▁lu	-9.33486
ue	-9.33607
▁boulot	-9.33627
▁number	-9.33627
▁TV	-9.33629
▁exactement	-9.3363
▁opinion	-9.33741
▁mistake	-9.33772
▁movie	-9.34039
▁dress	-9.34045
▁laisser	-9.34131
▁devrions	-9.34182
▁dispose	-9.34444
homme	-9.34474
ine	-9.34486
▁prison	-9.34504
▁dormir	-9.34582
▁Re	-9.34612
▁facile	-9.34683
▁dîner	-9.34741
▁professeur	-9.34741
▁envie	-9.34926
▁dollars	-9.34979
▁autres	-9.34988
▁serait	-9.35071
▁Fais	-9.35264
▁music	-9.353
▁pays	-9.35664
▁serai	-9.35737
▁knows	-9.35766
▁prix	-9.35881
▁vas	-9.3604
▁makes	-9.36121
tôt	-9.3618
▁hot	-9.36204
▁Her	-9.36266
▁himself	-9.36436
▁pouvais	-9.36436
▁angry	-9.36436
▁désolée	-9.36491
agit	-9.36564
lé	-9.36769
▁montre	-9.36897
▁o	-9.36963
és	-9.36991
▁fenêtre	-9.37007
▁beau	-9.37226
▁travers	-9.37278
▁su	-9.37309
▁étais	-9.37362
▁sorte	-9.37488
▁première	-9.37582
▁age	-9.37737
▁difficult	-9.37849
▁playing	-9.37887
ng	-9.37922
▁chaud	-9.37973
▁riche	-9.37981
▁lie	-9.38025
▁trip	-9.38159
▁lives	-9.38625
▁eating	-9.38685
▁catch	-9.38795
▁Dis	-9.38855
om	-9.38884
pe	-9.39277
▁dites	-9.39684
▁arrived	-9.39812
▁cheveux	-9.39915
▁musique	-9.39915
▁patient	-9.39915
▁radio	-9.39915
turned	-9.40055
ré	-9.4007
▁ago	-9.40143
▁rend	-9.40166
▁rencontrer	-9.4026
ck	-9.4032
▁safe	-9.40577
▁New	-9.40692
▁commence	-9.41001
▁fasse	-9.41102
▁thinking	-9.4137
▁gros	-9.41473
pa	-9.417
▁town	-9.41707
▁vers	-9.41714
ité	-9.41989
▁entendre	-9.42059
▁acheter	-9.42541
▁erreur	-9.42647
▁Keep	-9.42909
▁business	-9.42909
▁exactly	-9.42929
▁daughter	-9.4294
▁histoire	-9.43055
▁bit	-9.43185
▁ex	-9.4327
▁hours	-9.43398
rais	-9.43698
▁endroit	-9.43853
▁afternoon	-9.44132
▁type	-9.44132
co	-9.44175
▁class	-9.44246
▁vis	-9.44338
el	-9.4446
▁promise	-9.44474
▁fou	-9.44673
▁hands	-9.44677
▁pain	-9.44727
▁auparavant	-9.44749
ide	-9.4503
▁finish	-9.4523
▁tree	-9.45517
▁nouvelles	-9.45518
ate	-9.45583
▁leurs	-9.45678
▁rencontré	-9.45699
▁content	-9.4591
▁laisse	-9.45949
▁kept	-9.45995
▁puis	-9.45998
ier	-9.46336
▁red	-9.46491
▁listen	-9.4654
ard	-9.46572
▁âge	-9.46624
ance	-9.46638
▁po	-9.46967
▁snow	-9.47258
▁peuvent	-9.47276
▁parlé	-9.47345
▁against	-9.47379
▁bo	-9.47439
▁vient	-9.47467
▁surprise	-9.47552
▁full	-9.47556
▁win	-9.47607
▁bu	-9.4764
▁worry	-9.47755
▁die	-9.47811
▁journal	-9.47894
▁offer	-9.47899
▁become	-9.47934
▁payer	-9.48148
ap	-9.48215
▁through	-9.48535
▁Laissez	-9.48614
▁sent	-9.48794
no	-9.48938
▁occupée	-9.48999
▁arm	-9.49038
▁homework	-9.4918
▁peine	-9.49185
▁interesting	-9.49217
▁living	-9.49236
▁rappelle	-9.49405
▁prochaine	-9.49907
étranger	-9.49932
▁cinq	-9.49955
▁comp	-9.50037
▁vin	-9.50181
▁pro	-9.50359
▁dehors	-9.50483
▁essayé	-9.50524
▁interested	-9.50524
▁decided	-9.50618
▁propre	-9.50743
▁Vot	-9.50923
▁G	-9.5104
▁penser	-9.511
▁produit	-9.51141
▁attendre	-9.51154
quel	-9.51203
▁short	-9.51663
▁concert	-9.51804
▁nos	-9.51867
▁Go	-9.52322
▁classe	-9.52345
▁simple	-9.52412
▁later	-9.52419
▁pouvait	-9.5247
▁immédiatement	-9.52471
▁saying	-9.52616
▁head	-9.52728
▁blessé	-9.52765
▁mois	-9.52775
▁souci	-9.52833
▁baby	-9.53141
▁message	-9.53144
▁fier	-9.53205
▁montrer	-9.53431
▁touch	-9.53596
année	-9.53778
▁dead	-9.53833
ach	-9.53843
▁handle	-9.54185
▁company	-9.54497
▁cost	-9.54529
▁discuter	-9.54533
▁sac	-9.54607
▁argent	-9.54784
▁terminé	-9.55099
▁machine	-9.55182
▁genre	-9.55183
▁five	-9.55254
▁décidé	-9.55305
ry	-9.55548
▁says	-9.55593
▁cut	-9.55788
ag	-9.55791
▁park	-9.55839
all	-9.55855
▁nécessaire	-9.55872
▁sécurité	-9.55872
▁country	-9.55878
▁fumer	-9.55931
▁fus	-9.56037
▁news	-9.56436
▁forgot	-9.56567
▁funny	-9.56567
▁santé	-9.56569
▁faim	-9.56569
accident	-9.56589
ante	-9.56663
▁tomber	-9.5667
▁chercher	-9.56692
▁chanter	-9.56801
▁rich	-9.56818
▁apprendre	-9.57128
▁respect	-9.57132
▁Everybody	-9.57266
▁nombreux	-9.57269
▁cannot	-9.57269
▁different	-9.57273
▁commencé	-9.57286
▁probablement	-9.57294
▁marcher	-9.57321
▁mesure	-9.57338
▁répondre	-9.57391
▁song	-9.57661
▁Mes	-9.57725
▁Man	-9.57778
▁hit	-9.57807
▁prochain	-9.57886
▁Look	-9.5797
▁impossible	-9.5797
▁devoirs	-9.58058
quelle	-9.58081
▁rep	-9.58193
▁reçu	-9.58679
▁summer	-9.58679
▁préfère	-9.5868
▁paper	-9.58684
▁deal	-9.5873
▁sign	-9.58867
▁savez	-9.58919
▁co	-9.5897
▁probabl	-9.58993
▁arrêté	-9.59234
▁magasin	-9.59393
▁present	-9.59394
▁OK	-9.59395
▁Pour	-9.59539
▁mains	-9.59566
▁senti	-9.59573
iv	-9.59609
▁Pourri	-9.59662
▁Pourrai	-9.59733
rait	-9.59751
▁sound	-9.59923
▁changer	-9.59931
▁parce	-9.59955
▁girlfriend	-9.60113
▁absent	-9.60113
▁making	-9.60161
▁sing	-9.60443
mo	-9.60509
▁student	-9.60648
ow	-9.60658
▁taxi	-9.607
oyez	-9.60724
▁Faites	-9.60837
▁woman	-9.60837
▁report	-9.60838
▁final	-9.60854
▁fin	-9.61336
▁allons	-9.61455
▁feeling	-9.61461
les	-9.61511
▁clothes	-9.61567
▁dark	-9.61567
▁break	-9.61568
▁pensez	-9.61631
▁écrire	-9.61832
▁arriver	-9.62041
▁information	-9.62043
âmes	-9.62303
▁complètement	-9.62305
▁rapidement	-9.62328
▁vieille	-9.62373
▁hat	-9.62504
▁team	-9.62659
▁Me	-9.62667
▁excuses	-9.62699
▁lose	-9.62903
▁born	-9.63044
lu	-9.63109
▁plein	-9.63217
▁date	-9.63233
▁seat	-9.6324
▁tea	-9.63391
▁dream	-9.63513
▁rue	-9.63569
▁soin	-9.63672
▁di	-9.63691
▁cœur	-9.6379
▁box	-9.6381
▁taking	-9.63819
intention	-9.63889
▁idiot	-9.64182
▁Comme	-9.64366
and	-9.64408
▁thank	-9.64415
▁grow	-9.64419
▁langue	-9.6443
ke	-9.64433
avait	-9.6445
▁poste	-9.64503
entre	-9.64531
▁lumière	-9.64541
▁voulu	-9.64542
▁appris	-9.64542
▁outside	-9.64544
▁shoes	-9.65008
▁order	-9.65147
▁fish	-9.6518
tion	-9.65205
▁bébé	-9.65299
▁computer	-9.65299
▁Lorsqu	-9.653
▁bring	-9.653
op	-9.65461
▁essayer	-9.65638
til	-9.65711
▁wine	-9.65888
▁kill	-9.65908
▁breakfast	-9.66063
▁route	-9.66074
▁air	-9.66204
▁vont	-9.66277
▁emploi	-9.66394
mi	-9.66529
▁ch	-9.66616
▁explain	-9.66676
▁affaire	-9.66831
▁York	-9.66832
▁behind	-9.66832
▁bruit	-9.66832
▁façon	-9.66832
▁hospital	-9.66832
▁télévision	-9.66832
▁capable	-9.66845
▁guy	-9.66853
▁real	-9.66941
▁month	-9.67093
▁cas	-9.67142
▁pri	-9.6716
▁Au	-9.67224
▁ferai	-9.67386
cu	-9.67508
ated	-9.67517
ê	-9.67592
▁crazy	-9.67607
▁libre	-9.67607
▁robe	-9.67607
▁projet	-9.67608
▁rendu	-9.67752
▁pa	-9.67854
ill	-9.67858
▁problèmes	-9.68011
▁expect	-9.68093
▁fix	-9.68238
▁chanson	-9.68361
▁suffisamment	-9.68388
▁began	-9.68388
▁store	-9.68389
▁thé	-9.68395
▁needed	-9.68533
▁court	-9.68619
près	-9.68651
po	-9.68728
▁surpris	-9.68921
▁présent	-9.69092
▁hurry	-9.69175
▁street	-9.69175
▁Some	-9.69176
▁hotel	-9.69187
▁bois	-9.69203
▁fine	-9.69426
▁force	-9.69877
▁Arrête	-9.69905
▁join	-9.69967
▁vacances	-9.69969
▁which	-9.69969
▁proud	-9.69969
▁hungry	-9.69971
▁poisson	-9.69986
▁fur	-9.70116
▁cours	-9.70257
par	-9.70288
▁serious	-9.70708
bas	-9.70761
▁chaussures	-9.70769
▁numéro	-9.70769
▁city	-9.70895
▁Sais	-9.71083
▁then	-9.71209
▁penses	-9.71285
▁commencer	-9.71397
▁act	-9.7141
▁eaten	-9.7154
▁Sunday	-9.71576
▁asleep	-9.71576
▁drunk	-9.71576
▁smoke	-9.71576
▁front	-9.71586
to	-9.71619
▁watching	-9.71873
▁prend	-9.71879
▁perdre	-9.71889
▁appelé	-9.72342
ho	-9.72375
▁étions	-9.72389
▁upset	-9.72394
▁r	-9.72395
▁weekend	-9.72429
▁meilleure	-9.72436
our	-9.72634
▁lived	-9.72722
▁stayed	-9.72964
▁im	-9.72981
▁public	-9.732
▁souviens	-9.73208
▁revoir	-9.73213
▁river	-9.7322
sh	-9.73367
ux	-9.7337
ist	-9.73511
▁older	-9.73876
▁men	-9.73913
▁dictionnaire	-9.74035
▁favorite	-9.74041
▁death	-9.74048
▁quickly	-9.7405
▁poser	-9.74205
▁accept	-9.74215
ées	-9.74216
gu	-9.74237
man	-9.74315
arrêter	-9.74494
▁In	-9.74627
▁sort	-9.74743
ger	-9.74783
▁Pense	-9.74805
▁rouge	-9.74873
▁stopped	-9.74877
▁changed	-9.74902
▁rapport	-9.75025
0	-9.75122
▁rire	-9.75241
▁vol	-9.75475
▁prudent	-9.75635
▁choix	-9.75708
▁derrière	-9.75708
▁dimanche	-9.75708
▁became	-9.75708
▁guerre	-9.75709
▁plaisir	-9.75712
▁pleurer	-9.75768
▁quiconque	-9.75854
▁manque	-9.75879
▁hour	-9.7591
▁war	-9.76011
▁utiliser	-9.76062
▁tort	-9.76216
▁clean	-9.76257
▁décision	-9.76556
▁killed	-9.76728
▁neige	-9.7678
ru	-9.76859
▁garder	-9.76871
▁worth	-9.76995
▁regarde	-9.77044
▁goes	-9.77134
▁works	-9.77155
▁chapeau	-9.77411
▁vêtements	-9.77413
▁paid	-9.77414
▁mourir	-9.77417
▁bras	-9.77429
▁aimé	-9.77438
▁plane	-9.77492
pé	-9.77516
▁American	-9.77559
▁Ai	-9.77708
ui	-9.77739
▁Ton	-9.77891
▁allez	-9.77938
ful	-9.77951
▁check	-9.78115
▁dictionary	-9.78273
▁voulons	-9.78273
▁roman	-9.78273
▁cake	-9.78274
▁fat	-9.78283
▁building	-9.78289
▁invited	-9.78336
▁four	-9.78467
été	-9.78569
I	-9.78616
▁conseil	-9.7871
▁rentrer	-9.78795
ayez	-9.78833
▁bag	-9.79026
▁aurait	-9.79064
▁telle	-9.79091
▁France	-9.79142
▁nombreuse	-9.79146
rought	-9.79255
rons	-9.79566
▁dance	-9.79636
▁likes	-9.80007
▁between	-9.80019
▁choice	-9.80019
▁joke	-9.80019
▁smoking	-9.80019
▁coat	-9.80024
▁venue	-9.8003
▁count	-9.8005
▁comes	-9.80055
▁Pensez	-9.80087
▁vaut	-9.80098
▁affaires	-9.80149
ale	-9.80329
▁sit	-9.80518
▁ri	-9.80586
▁words	-9.80792
▁marche	-9.8083
▁stupide	-9.80862
▁begin	-9.809
▁correct	-9.80904
▁terrible	-9.80904
▁plage	-9.80911
habitude	-9.8128
go	-9.81325
▁étudier	-9.81595
rent	-9.81633
▁per	-9.81643
▁gentil	-9.81679
▁prends	-9.81722
▁gâteau	-9.81797
▁compris	-9.81798
▁Dites	-9.81798
▁along	-9.81798
▁bière	-9.81806
▁boss	-9.81907
?"	-9.8192
▁pluie	-9.8192
▁bar	-9.81946
▁beach	-9.82118
▁ticket	-9.82119
▁key	-9.82125
▁retour	-9.82391
▁move	-9.82449
oublie	-9.82469
▁avais	-9.82538
▁sense	-9.82547
▁étudiants	-9.82568
▁birthday	-9.82698
▁everybody	-9.82698
per	-9.82707
▁Try	-9.82735
▁clear	-9.82782
▁lucky	-9.82839
▁quatre	-9.82846
▁demanda	-9.82954
▁Cet	-9.83026
▁whole	-9.83045
▁mit	-9.83069
▁mots	-9.83164
▁prête	-9.833
vie	-9.83317
▁finir	-9.83558
▁expensive	-9.83607
▁moindre	-9.83607
▁realize	-9.83611
▁manteau	-9.83613
▁studying	-9.83877
ia	-9.83916
▁heart	-9.83918
▁cent	-9.83959
▁pick	-9.83971
▁usual	-9.84097
ire	-9.84101
▁parc	-9.84131
▁pied	-9.84211
▁others	-9.84286
▁carte	-9.84287
euse	-9.84362
ations	-9.84362
▁health	-9.84369
▁réussi	-9.84383
▁travel	-9.84386
▁coûte	-9.8442
▁vi	-9.84476
▁devant	-9.84525
▁veulent	-9.84525
▁environ	-9.84525
▁milk	-9.84528
▁Paris	-9.84558
▁cup	-9.84599
▁cher	-9.84661
▁regard	-9.84822
ible	-9.84911
▁drinking	-9.85017
▁Des	-9.8511
▁strange	-9.85288
▁cuisine	-9.8529
▁strong	-9.85309
j	-9.85327
▁télé	-9.85451
▁prefer	-9.85451
▁plupart	-9.85451
▁désormais	-9.85476
▁expected	-9.85635
▁Ses	-9.85688
▁droit	-9.8577
▁h	-9.85811
▁language	-9.85876
▁rêve	-9.8588
▁case	-9.85966
iste	-9.86083
▁ba	-9.861
ner	-9.86218
▁pi	-9.86219
▁cadeau	-9.86367
▁telephone	-9.86385
▁Prends	-9.86387
▁font	-9.86441
▁marché	-9.86448
ade	-9.86538
▁mauvaise	-9.86578
▁tour	-9.86604
▁avion	-9.86705
▁payé	-9.86958
▁sorti	-9.87049
▁cherche	-9.87179
▁tall	-9.87321
▁rivière	-9.87329
▁road	-9.87329
▁blame	-9.87331
▁crime	-9.87334
▁At	-9.8744
▁celle	-9.87705
▁bas	-9.87758
▁broken	-9.87786
▁Thank	-9.87813
▁donne	-9.87892
▁beer	-9.88003
rez	-9.88083
use	-9.88116
▁ceux	-9.88185
▁Va	-9.8827
▁changé	-9.88281
▁wrote	-9.88281
▁price	-9.88445
▁whe	-9.88529
▁pen	-9.88701
▁walked	-9.88711
▁gagner	-9.88805
▁lait	-9.88921
▁speaking	-9.88927
▁clé	-9.8893
▁noir	-9.88945
▁arrêter	-9.88994
▁boîte	-9.89242
▁decision	-9.89243
▁dangerous	-9.89263
▁spent	-9.89285
▁noise	-9.89327
▁couple	-9.89456
▁ordinateur	-9.89606
▁porter	-9.89678
▁équipe	-9.89813
▁apologize	-9.899
▁cook	-9.89904
▁assis	-9.89935
ond	-9.89977
▁eux	-9.90035
▁charge	-9.90057
for	-9.9009
▁filles	-9.90153
▁times	-9.90274
▁doute	-9.9032
▁test	-9.90333
▁Aime	-9.90363
▁intelligent	-9.90385
▁wear	-9.90388
▁future	-9.9043
▁fact	-9.90441
▁happening	-9.90613
gi	-9.90703
▁normal	-9.90728
irai	-9.90751
▁kids	-9.90864
▁closed	-9.90872
▁mari	-9.90888
ba	-9.90995
▁consider	-9.91038
▁Am	-9.91098
hôpital	-9.91194
▁résoudre	-9.91194
▁village	-9.91194
▁soleil	-9.91197
▁camera	-9.91312
▁mistakes	-9.91456
▁Br	-9.91559
igne	-9.91627
▁réjouis	-9.91695
▁contact	-9.92043
▁devenu	-9.9205
▁luck	-9.92081
▁jardin	-9.92184
▁Someone	-9.92184
▁trente	-9.92184
▁terre	-9.92199
▁étrange	-9.92217
▁tenir	-9.92236
▁scared	-9.92259
▁amies	-9.92384
▁savait	-9.92457
▁suite	-9.92531
▁elles	-9.92603
acheter	-9.92789
▁sp	-9.92824
▁One	-9.92859
essayer	-9.92889
▁follow	-9.9289
out	-9.9293
▁Bo	-9.93034
▁needs	-9.93047
▁Certain	-9.93184
▁papier	-9.93184
▁running	-9.93185
▁famous	-9.93185
▁novel	-9.93225
▁hors	-9.93348
ight	-9.93394
▁intéressant	-9.93421
▁garden	-9.93585
entendre	-9.93912
▁donc	-9.93975
▁resté	-9.94036
▁helped	-9.94095
▁succès	-9.94195
▁bateau	-9.94196
▁rappeler	-9.942
▁piece	-9.94231
▁poor	-9.9424
▁grosse	-9.94288
▁Was	-9.94315
▁enseignant	-9.94389
▁mad	-9.94475
écrire	-9.94589
▁ouvert	-9.94778
▁side	-9.94779
▁école	-9.94815
▁known	-9.94934
▁kiss	-9.95059
ually	-9.95066
▁regret	-9.95089
▁worried	-9.95214
▁Prenez	-9.95234
bo	-9.95322
▁problems	-9.9546
▁Quelque	-9.95531
▁entrer	-9.95604
ect	-9.95721
▁faute	-9.95762
▁sentir	-9.95771
time	-9.95885
▁line	-9.95934
rie	-9.9595
▁année	-9.95989
▁Te	-9.96061
▁repas	-9.96198
▁written	-9.96245
▁proposition	-9.96253
▁super	-9.96255
▁crying	-9.96353
▁ni	-9.96552
▁second	-9.96597
▁Par	-9.96698
▁japonais	-9.96702
clock	-9.96924
avion	-9.96932
▁ship	-9.97002
▁seeing	-9.97209
▁forward	-9.97287
▁Rien	-9.97287
▁distance	-9.97287
▁parole	-9.97288
▁quiet	-9.97423
▁faisait	-9.97481
▁bother	-9.97616
▁worked	-9.97811
▁Soi	-9.97852
▁fall	-9.97895
ler	-9.97932
tic	-9.97955
▁desk	-9.98081
▁Ces	-9.98137
▁jeu	-9.98138
▁perfect	-9.98278
▁finalement	-9.98354
▁feriez	-9.98358
▁proche	-9.98361
▁donna	-9.98371
▁réparer	-9.98379
▁chair	-9.98466
▁fonctionne	-9.98549
do	-9.98717
▁dormi	-9.98951
▁fleurs	-9.99128
▁parviens	-9.99403
▁amusant	-9.99404
▁triste	-9.99408
▁shopping	-9.99413
▁autour	-9.99417
▁plans	-9.99493
▁présenter	-9.99753
▁sat	-9.9987
▁evening	-9.99908
▁fera	-9.99925
ber	-9.9996
up	-9.99988
▁Et	-10.0003
nne	-10.0009
▁To	-10.0009
▁pré	-10.0022
esprit	-10.0048
▁vouloir	-10.0048
▁satisfait	-10.0049
▁certaine	-10.0055
▁least	-10.0057
▁ressemble	-10.0058
▁tasse	-10.0058
▁appareil	-10.0064
▁réussir	-10.0065
▁warm	-10.0077
missed	-10.0079
▁regardé	-10.0105
▁allée	-10.0113
▁ho	-10.0116
▁tombé	-10.0149
▁happens	-10.0151
▁promesse	-10.0157
▁bird	-10.0157
▁risk	-10.0157
▁match	-10.0157
▁necessary	-10.0158
▁owe	-10.0163
▁painting	-10.0168
▁durant	-10.0171
▁wearing	-10.0172
▁loves	-10.0172
ble	-10.0174
▁talked	-10.0185
▁rid	-10.0192
▁sad	-10.0209
▁taken	-10.0212
instant	-10.0236
dessus	-10.0237
iconque	-10.0247
▁ab	-10.0248
▁né	-10.0255
▁dép	-10.0259
eople	-10.0265
▁After	-10.0266
▁Kyoto	-10.0266
▁parfois	-10.0266
▁pleuvoir	-10.0266
▁writing	-10.0266
▁smell	-10.0267
▁Dans	-10.0267
▁amoureux	-10.0268
▁refuse	-10.0268
▁tuer	-10.0312
▁connaît	-10.0323
▁attendu	-10.0328
▁fond	-10.0355
▁Donne	-10.0367
▁obligé	-10.0368
art	-10.0374
▁across	-10.0378
▁address	-10.0378
▁recognize	-10.0378
▁risque	-10.0378
▁completely	-10.038
▁Pu	-10.0387
▁devoir	-10.0389
▁serez	-10.0397
▁pe	-10.0408
▁quitter	-10.0415
▁prêter	-10.0417
▁weight	-10.0425
▁déc	-10.0462
histoire	-10.0463
▁So	-10.0467
▁pre	-10.0472
▁Everything	-10.049
▁speech	-10.049
▁honest	-10.049
▁shot	-10.049
ction	-10.0531
ise	-10.0546
attends	-10.0552
▁flowers	-10.0563
▁suit	-10.0573
▁conseils	-10.0573
amour	-10.0577
▁fatiguée	-10.0583
▁bord	-10.0591
▁ju	-10.0594
▁college	-10.0604
▁medicine	-10.0604
▁pauvre	-10.0604
▁rhume	-10.0604
▁sport	-10.0604
▁Plus	-10.0604
▁connu	-10.0604
▁actually	-10.0604
▁conseillé	-10.0605
▁mountain	-10.0605
▁swimming	-10.0606
▁tableau	-10.0607
▁Allez	-10.0635
▁cute	-10.0639
▁loved	-10.0647
▁perd	-10.0674
▁arme	-10.0675
▁takes	-10.0676
▁viendra	-10.0684
▁uncle	-10.069
▁success	-10.0695
▁leaving	-10.0718
▁parapluie	-10.0718
▁umbrella	-10.0718
▁poids	-10.0719
▁dangereux	-10.0726
▁bill	-10.0734
ish	-10.0737
▁calme	-10.0746
▁tué	-10.0764
▁speaks	-10.0765
hi	-10.0768
▁willing	-10.0776
ite	-10.0781
▁haut	-10.0794
▁passée	-10.081
appelle	-10.0812
▁bl	-10.0816
▁horse	-10.0816
ot	-10.0823
▁tel	-10.0825
▁discuss	-10.083
▁fl	-10.0832
▁Stay	-10.0835
▁blague	-10.0835
▁husband	-10.0835
▁sentence	-10.0835
▁alive	-10.0835
qui	-10.0836
▁lying	-10.084
▁ride	-10.084
▁sang	-10.0848
▁volé	-10.0861
▁habit	-10.0892
vin	-10.0892
▁photos	-10.0899
▁cour	-10.0911
▁girls	-10.0923
ice	-10.0932
▁vent	-10.0939
▁condition	-10.0952
▁boyfriend	-10.0952
▁doubt	-10.0952
▁phrase	-10.0952
▁oncle	-10.0953
▁star	-10.0954
▁Arrêtez	-10.0962
▁Now	-10.097
▁supporter	-10.0977
▁whatever	-10.0986
▁années	-10.0994
▁tr	-10.1002
▁Sin	-10.1004
▁sometimes	-10.1009
▁dogs	-10.101
▁Thanks	-10.1011
▁An	-10.1051
▁Tur	-10.1052
▁cr	-10.1058
▁bibliothèque	-10.1071
▁conscience	-10.1071
▁vacation	-10.1071
▁également	-10.1072
▁chaise	-10.1074
▁mariée	-10.1078
▁coin	-10.1079
▁hommes	-10.1082
▁Ta	-10.1082
▁thirty	-10.1084
ling	-10.1095
▁For	-10.1098
▁Regarde	-10.1125
▁femmes	-10.115
▁lis	-10.1172
▁solve	-10.1173
avis	-10.118
▁vieil	-10.1181
▁Ha	-10.1182
riez	-10.1187
▁half	-10.1192
▁Noël	-10.1192
▁abroad	-10.1192
▁fault	-10.1192
▁goût	-10.1192
▁quelconque	-10.1192
▁responsable	-10.1192
▁courir	-10.1194
▁list	-10.1262
▁Toute	-10.1266
▁yen	-10.1283
▁fer	-10.1294
bi	-10.1297
▁succeed	-10.1298
▁drôle	-10.1314
▁experience	-10.1314
▁library	-10.1314
▁newspaper	-10.1314
▁tranquille	-10.1314
▁floor	-10.1315
▁sommeil	-10.1321
▁service	-10.1321
▁chiens	-10.1322
▁tie	-10.1332
▁Cha	-10.1337
▁listening	-10.1341
▁sounds	-10.1347
▁liste	-10.135
"	-10.1355
autres	-10.1365
▁opened	-10.1375
▁K	-10.1381
▁dise	-10.1393
arbre	-10.1421
déjeuner	-10.1422
▁club	-10.1437
▁somebody	-10.1437
▁foreign	-10.1437
▁suspect	-10.1438
▁disappointed	-10.1442
▁cassé	-10.1453
▁waste	-10.1456
▁sentiment	-10.1458
▁Reste	-10.146
attendre	-10.146
▁rules	-10.1469
▁revenu	-10.1475
▁mur	-10.1475
▁lever	-10.1479
▁impatient	-10.1481
▁pire	-10.1497
▁lac	-10.1512
▁dérange	-10.1515
▁set	-10.1526
examen	-10.1546
▁2	-10.1549
ought	-10.1549
▁black	-10.1562
▁tempête	-10.1562
▁vécu	-10.1562
▁douleur	-10.1562
▁signifie	-10.1562
▁wall	-10.1562
▁special	-10.1564
où	-10.1583
▁forme	-10.1587
▁jeunes	-10.159
▁Europe	-10.159
après	-10.1599
he	-10.1608
▁reconnaissant	-10.1613
▁ill	-10.162
▁port	-10.1631
▁sun	-10.1643
▁com	-10.1654
eaucoup	-10.1687
employ	-10.1689
▁solution	-10.1689
▁breath	-10.1689
▁storm	-10.1689
▁urgent	-10.169
▁salle	-10.169
▁taille	-10.1697
▁règles	-10.17
▁ha	-10.1706
▁forcé	-10.1722
▁lend	-10.1728
▁learned	-10.1731
écoute	-10.1792
▁étudiant	-10.1794
▁borrow	-10.1801
▁hold	-10.1803
▁patron	-10.1815
oudriez	-10.1817
▁montagne	-10.1817
▁share	-10.1817
▁Aucun	-10.1818
▁billet	-10.1818
▁bâtiment	-10.1818
▁choose	-10.182
▁discussion	-10.1823
▁nervous	-10.1828
▁prudente	-10.1828
▁support	-10.183
▁fallu	-10.1834
▁carefully	-10.1838
▁garde	-10.1847
ical	-10.1848
▁passed	-10.1899
▁cou	-10.1925
▁glass	-10.193
cer	-10.1932
▁smart	-10.1933
enfant	-10.1939
▁foot	-10.1947
▁Christmas	-10.1947
▁traffic	-10.1947
▁shop	-10.1947
▁excellent	-10.1948
▁souvenir	-10.1948
empêcher	-10.1948
▁sta	-10.1949
how	-10.1954
▁suivre	-10.1956
▁contente	-10.1968
led	-10.1977
▁plusieur	-10.198
ak	-10.1984
▁marié	-10.1989
▁pommes	-10.2
aise	-10.2006
▁aidé	-10.2012
▁anniversaire	-10.2017
▁fermé	-10.2022
▁propres	-10.2026
▁sell	-10.204
▁spoke	-10.2052
▁enter	-10.2056
▁sol	-10.206
▁vienne	-10.2077
appeler	-10.2077
▁mien	-10.2077
▁easily	-10.2079
▁magazine	-10.2079
▁white	-10.2079
▁sérieux	-10.2079
▁camp	-10.2079
▁pretend	-10.2079
▁voix	-10.2079
▁précis	-10.2079
▁Suis	-10.2079
▁somewhere	-10.2079
▁mienne	-10.2081
▁involved	-10.2081
▁honte	-10.2084
▁direction	-10.2094
▁aurais	-10.2105
▁sight	-10.2106
▁apple	-10.2106
▁li	-10.2106
▁dessus	-10.2116
▁gun	-10.2127
▁imagine	-10.214
éri	-10.2144
▁sever	-10.2154
▁10	-10.2166
▁meal	-10.2175
▁allés	-10.218
ient	-10.2188
▁bout	-10.2196
▁fight	-10.22
▁vend	-10.2207
entretenir	-10.2212
▁chemise	-10.2212
▁innocent	-10.2212
▁shirt	-10.2212
▁difference	-10.2212
▁lunettes	-10.2212
▁ahead	-10.2212
▁belong	-10.2212
dedans	-10.2212
▁montré	-10.2213
▁mariage	-10.2214
▁press	-10.2215
▁regarda	-10.2221
▁carry	-10.2222
▁cry	-10.2231
▁rendez	-10.2232
▁gets	-10.2236
▁inconvénient	-10.2242
▁couru	-10.2257
▁supposé	-10.226
arriver	-10.2261
▁sleeping	-10.2267
▁danser	-10.2267
▁laugh	-10.229
▁garçons	-10.2294
▁rang	-10.2295
▁gagne	-10.2303
▁loi	-10.2339
▁chats	-10.2344
▁manage	-10.2346
▁chouette	-10.2347
▁herself	-10.2347
▁mensonge	-10.2347
▁studie	-10.2347
▁banque	-10.2347
▁crains	-10.2347
▁either	-10.2347
▁États	-10.2348
▁winter	-10.2348
▁shut	-10.2348
▁amusé	-10.2348
▁Restez	-10.2354
▁Mo	-10.2357
▁réfléchir	-10.2365
io	-10.2374
▁ice	-10.2376
▁eye	-10.2383
▁seras	-10.2389
▁article	-10.2389
▁adore	-10.2392
▁morte	-10.2395
▁sold	-10.2397
▁save	-10.2401
▁inter	-10.2401
ph	-10.2403
▁différent	-10.2428
▁means	-10.2428
▁fermer	-10.2433
▁nu	-10.2443
▁Every	-10.2484
▁plenty	-10.2484
▁valise	-10.2484
▁color	-10.2484
▁Nothing	-10.2484
▁gift	-10.2484
▁baseball	-10.2484
▁held	-10.2485
▁Voici	-10.2485
▁courage	-10.2486
▁compter	-10.2489
▁prepared	-10.2492
▁courant	-10.2498
▁facilement	-10.2498
▁nombre	-10.2502
attendais	-10.2506
▁parlez	-10.2515
▁vingt	-10.2519
▁fruit	-10.2523
▁refused	-10.2526
▁sc	-10.2531
▁invité	-10.2547
cé	-10.2566
▁pieds	-10.2566
ize	-10.2573
▁harder	-10.259
▁honnête	-10.2593
▁course	-10.2594
▁pens	-10.2612
▁couleur	-10.2623
▁différence	-10.2623
▁envoyé	-10.2623
▁société	-10.2623
▁discours	-10.2623
▁congé	-10.2623
▁longue	-10.2631
▁tombée	-10.2633
▁guys	-10.2633
▁certainement	-10.2634
▁tra	-10.2641
▁marier	-10.2644
ster	-10.2667
▁mail	-10.2673
▁chante	-10.2681
▁note	-10.2697
▁agreed	-10.2703
▁promised	-10.2708
▁occasion	-10.2724
▁calm	-10.273
▁intéressé	-10.2735
▁choisir	-10.2735
▁ob	-10.2745
▁endormi	-10.2747
▁erreurs	-10.2753
▁rends	-10.2757
▁clair	-10.2763
▁Something	-10.2764
▁driving	-10.2764
▁ciel	-10.2764
asseoir	-10.2764
▁imagination	-10.2765
▁deserve	-10.2765
▁immediately	-10.2765
▁bank	-10.2765
ignorais	-10.2766
▁vivent	-10.2767
▁voyager	-10.277
▁allowed	-10.2775
lui	-10.2782
▁cancer	-10.2789
▁law	-10.2792
▁aviez	-10.2797
▁retourner	-10.2798
▁dressed	-10.2803
▁groupe	-10.2811
▁kid	-10.2811
▁raining	-10.2814
▁continuer	-10.283
▁shower	-10.2837
▁bi	-10.2852
▁blessée	-10.2854
▁cri	-10.2862
▁cru	-10.2863
▁talent	-10.2891
▁earlier	-10.2907
▁médicament	-10.2907
▁women	-10.2907
▁permis	-10.2907
▁utile	-10.2907
▁mérite	-10.2907
▁Bien	-10.2907
▁stylo	-10.2907
▁boat	-10.2908
▁liar	-10.2909
▁gagné	-10.2909
attend	-10.291
hôtel	-10.291
affaire	-10.2911
▁worse	-10.2913
ray	-10.2913
▁remercier	-10.2917
▁glasses	-10.2926
▁soirée	-10.2932
▁Allons	-10.2934
▁parfait	-10.2945
▁feelings	-10.2946
▁Se	-10.2946
▁ouverte	-10.2968
▁menti	-10.2972
qué	-10.2979
▁Were	-10.2985
▁keys	-10.2999
▁ouvrir	-10.3004
cent	-10.303
▁promis	-10.3032
père	-10.3039
▁teach	-10.3043
▁peint	-10.3051
▁power	-10.3051
▁Sorry	-10.3052
▁animaux	-10.3052
▁population	-10.3052
▁television	-10.3052
ï	-10.3052
▁maladie	-10.3052
▁admit	-10.3052
▁impressed	-10.3053
▁coucher	-10.306
▁page	-10.306
▁Donnez	-10.3061
ants	-10.3067
▁laissez	-10.3068
▁continue	-10.3075
seriez	-10.3084
▁commença	-10.3084
▁waited	-10.3116
allai	-10.3123
▁ravi	-10.3124
hier	-10.3129
▁manquer	-10.3142
▁dirait	-10.3144
hose	-10.316
▁lake	-10.3163
▁Here	-10.3169
▁arrivée	-10.3173
ément	-10.3193
Unis	-10.3199
▁Monday	-10.3199
▁bizarre	-10.3199
▁cheval	-10.3199
▁frappé	-10.3199
▁lundi	-10.3199
▁remain	-10.32
▁wonderful	-10.32
▁visage	-10.3203
▁rent	-10.3204
▁control	-10.3204
fin	-10.3212
▁leg	-10.3221
▁examen	-10.3233
rions	-10.3241
vent	-10.3267
▁connaître	-10.3273
vec	-10.3305
▁recherche	-10.3306
▁decide	-10.3317
▁America	-10.3322
▁pot	-10.3323
▁file	-10.3323
▁intention	-10.3328
▁fool	-10.3347
▁Maintenant	-10.3348
▁autorisé	-10.3348
▁docteur	-10.3348
▁heavy	-10.3348
▁twice	-10.3348
▁incroyable	-10.3348
▁inside	-10.335
▁poche	-10.3351
▁painted	-10.3362
▁forte	-10.3369
éré	-10.3371
▁manqué	-10.3374
▁jolie	-10.3381
ame	-10.3389
▁repos	-10.3392
▁walking	-10.3409
▁ligne	-10.3416
▁soucie	-10.342
▁wind	-10.3421
▁1	-10.3422
▁convaincu	-10.3442
▁exam	-10.3448
ition	-10.3451
▁asking	-10.3452
▁importante	-10.3466
▁appel	-10.3468
▁Dieu	-10.3499
▁cigarette	-10.3499
▁apprécié	-10.35
▁Leave	-10.3501
▁fiche	-10.3501
nique	-10.3503
▁Even	-10.3506
▁cooking	-10.3521
▁cuisiner	-10.3526
▁rentré	-10.355
▁moyen	-10.3566
ped	-10.3575
▁excuse	-10.3587
▁traite	-10.3615
▁treat	-10.3638
▁balle	-10.3638
ness	-10.364
rée	-10.3652
intérieur	-10.3653
▁afford	-10.3653
▁moitié	-10.3653
▁reconnu	-10.3653
▁slept	-10.3653
▁viande	-10.3653
▁vouliez	-10.3653
▁élevé	-10.3653
▁also	-10.3653
▁football	-10.3653
▁feed	-10.3654
▁tire	-10.3664
▁appeler	-10.3677
▁kissed	-10.3677
▁seemed	-10.3703
▁ira	-10.3714
eu	-10.3743
▁top	-10.3744
ari	-10.3759
▁bal	-10.3762
▁suggest	-10.378
ial	-10.3791
▁devin	-10.3795
▁direct	-10.3799
aéroport	-10.3809
extérieur	-10.3809
▁habituellement	-10.3809
▁nettoyer	-10.3809
▁particular	-10.3809
▁président	-10.3809
▁suitcase	-10.3809
▁art	-10.381
▁golf	-10.381
échec	-10.381
▁attrapé	-10.381
▁marry	-10.381
▁copine	-10.381
▁Quoi	-10.381
▁rude	-10.3811
▁gotten	-10.3813
▁décider	-10.3814
ord	-10.3815
▁fallait	-10.3815
▁conseilla	-10.3816
▁step	-10.3824
ian	-10.3826
▁souri	-10.3831
isé	-10.3841
▁gu	-10.3856
▁Al	-10.3866
▁nage	-10.3874
▁préféré	-10.3888
▁lève	-10.3922
▁ferme	-10.3933
appr	-10.3938
▁cruel	-10.3942
mère	-10.3947
▁blood	-10.3968
▁célèbre	-10.3968
▁patience	-10.3968
▁pleut	-10.3968
▁préparé	-10.3968
▁Essaie	-10.3968
▁emprunter	-10.3968
▁anywhere	-10.3969
▁voice	-10.3972
land	-10.398
▁failed	-10.3981
▁laughed	-10.3987
▁wood	-10.3988
▁bouton	-10.3991
▁animals	-10.4009
▁faisons	-10.4012
▁instant	-10.4013
▁likely	-10.4013
écouter	-10.4021
idée	-10.4026
wo	-10.4036
▁auriez	-10.405
▁favor	-10.4078
▁courses	-10.4117
▁Voudra	-10.413
▁obtenu	-10.413
▁satisfied	-10.413
▁wake	-10.413
▁welcome	-10.413
▁throw	-10.413
▁Venez	-10.413
▁accused	-10.413
▁blue	-10.4131
▁Most	-10.4133
aimait	-10.4134
uc	-10.4136
▁préparer	-10.4138
▁ideas	-10.4138
▁duty	-10.4139
▁mer	-10.4139
▁cousin	-10.4141
▁pont	-10.4151
ateur	-10.4152
S	-10.4154
cy	-10.4159
▁fishing	-10.4159
▁seven	-10.4168
▁neuf	-10.4182
▁remind	-10.419
old	-10.4194
▁Isn	-10.4207
▁vert	-10.4207
ork	-10.4212
▁Désolé	-10.4228
action	-10.4235
▁arbre	-10.4236
▁semaines	-10.4238
▁return	-10.4278
▁plain	-10.4291
▁spécial	-10.4293
▁blanc	-10.4293
▁Should	-10.4293
▁Viens	-10.4293
▁airport	-10.4293
▁combat	-10.4293
▁conversation	-10.4293
▁holiday	-10.4293
▁promenade	-10.4293
▁prévu	-10.4293
▁écouté	-10.4293
▁enemy	-10.4293
▁lawyer	-10.4293
▁musée	-10.4293
▁stick	-10.4293
▁élèves	-10.4293
▁debout	-10.4294
▁destin	-10.4297
▁warned	-10.4301
▁seriously	-10.4306
aurai	-10.4314
▁rencontre	-10.4319
ira	-10.4325
▁choisi	-10.4325
▁suivi	-10.4335
▁ring	-10.4335
▁moyens	-10.4384
3	-10.4419
▁parvenu	-10.4425
▁base	-10.445
▁Has	-10.4455
▁boys	-10.4455
▁John	-10.446
▁bottle	-10.446
▁popular	-10.446
▁stuff	-10.446
▁woke	-10.446
▁connaissance	-10.446
université	-10.4461
▁Chinese	-10.4462
▁terminer	-10.447
irent	-10.4471
▁avocat	-10.4476
▁habite	-10.4487
▁soup	-10.4497
oyons	-10.4537
▁clés	-10.454
▁send	-10.4557
▁pomme	-10.4562
▁début	-10.4591
▁sourire	-10.4595
▁escape	-10.4599
▁leaves	-10.4624
▁ashamed	-10.463
▁bridge	-10.463
▁convaincre	-10.463
▁explication	-10.463
▁museum	-10.463
▁printemps	-10.463
▁president	-10.463
▁London	-10.463
▁fear	-10.463
▁grave	-10.463
▁sky	-10.463
▁corps	-10.463
▁mention	-10.4631
▁earth	-10.4631
▁button	-10.4632
▁allait	-10.4637
▁Regardez	-10.464
▁sou	-10.4645
▁lock	-10.4646
▁convinced	-10.4654
▁douche	-10.4655
▁paint	-10.4658
ither	-10.466
▁comprend	-10.466
A	-10.4661
▁pr	-10.4671
▁meat	-10.4715
▁depend	-10.4717
ited	-10.472
▁fired	-10.4732
▁raise	-10.4737
▁bonnes	-10.4743
▁hi	-10.4748
▁w	-10.4751
▁trees	-10.477
▁sympa	-10.4777
lon	-10.4785
▁Londres	-10.4802
▁chinois	-10.4802
▁sweet	-10.4802
▁garage	-10.4802
▁empty	-10.4802
▁forgive	-10.4802
▁dépend	-10.4804
▁vide	-10.4805
▁rapide	-10.481
▁travaillé	-10.4813
▁laughing	-10.482
ujourd	-10.4828
▁langues	-10.4828
▁sortie	-10.4829
▁ennuis	-10.4831
impression	-10.4836
▁Mak	-10.4841
ose	-10.4848
▁19	-10.486
▁pictures	-10.4868
▁God	-10.4883
îmes	-10.4889
▁ignore	-10.4892
▁pull	-10.4895
elon	-10.4901
occuper	-10.4903
▁staying	-10.4913
▁truc	-10.4916
▁pleased	-10.4917
▁San	-10.4919
▁Hol	-10.4924
▁accord	-10.494
▁heat	-10.4952
▁déçu	-10.4955
▁exact	-10.497
▁découvert	-10.4977
▁grandfather	-10.4977
▁impliqué	-10.4977
▁injured	-10.4977
▁glace	-10.4977
▁fresh	-10.4977
▁permission	-10.4977
▁murder	-10.4978
▁project	-10.4978
▁joindre	-10.4978
▁serve	-10.4978
▁déclar	-10.4978
▁sept	-10.4981
▁meant	-10.4983
ième	-10.4984
▁bain	-10.4987
▁souhait	-10.4991
▁obligée	-10.4993
▁singing	-10.5013
▁post	-10.5027
▁boit	-10.5041
▁étudie	-10.5052
▁pair	-10.5064
▁languages	-10.5074
▁mise	-10.508
▁ru	-10.509
▁conduit	-10.51
gré	-10.5103
▁pleine	-10.5114
▁smile	-10.5125
▁fair	-10.5133
▁hôtel	-10.5151
▁protect	-10.5155
▁Today	-10.5156
▁account	-10.5156
▁horrible	-10.5156
▁pocket	-10.5156
▁possibilité	-10.5156
▁taught	-10.5156
▁cool	-10.5156
▁marrant	-10.5156
▁orange	-10.5156
acquisition	-10.5157
▁built	-10.5157
▁actuellement	-10.5158
▁deep	-10.5158
gar	-10.5159
▁partout	-10.5162
▁Wait	-10.5168
▁wor	-10.5172
▁manager	-10.5178
ple	-10.5179
▁polite	-10.5184
tally	-10.5185
▁growing	-10.5189
▁voler	-10.5194
oreille	-10.5198
▁apprécie	-10.5198
▁movies	-10.5203
▁guitar	-10.5207
▁guitare	-10.5218
▁moved	-10.5218
▁viendrai	-10.5232
▁sleepy	-10.5238
▁Sh	-10.5284
vel	-10.5284
rim	-10.5288
▁fri	-10.5294
accus	-10.5296
▁pla	-10.5302
▁eut	-10.5304
▁mentir	-10.5305
▁card	-10.5334
stood	-10.5337
▁gouvernement	-10.5338
▁lonely	-10.5338
▁major	-10.5338
▁préférerais	-10.5338
▁responsabilité	-10.5338
▁straight	-10.5338
▁zoo	-10.5338
▁œil	-10.5338
▁chaleur	-10.5338
▁memory	-10.5338
▁extrême	-10.5338
▁jealous	-10.5338
▁prenez	-10.5338
▁beginning	-10.5338
▁lentement	-10.5338
▁commun	-10.5338
▁trans	-10.5339
champ	-10.5341
▁spring	-10.5342
▁sérieusement	-10.5342
▁band	-10.5343
▁refusé	-10.5345
▁frais	-10.5346
▁boisson	-10.5347
▁perte	-10.5347
oubliez	-10.5356
assi	-10.5357
▁followed	-10.5366
▁fis	-10.5369
▁coll	-10.5374
▁continu	-10.5379
expliquer	-10.5387
▁signe	-10.5402
▁attraper	-10.5404
▁eggs	-10.5412
▁though	-10.5435
▁avaient	-10.5439
▁played	-10.5447
▁descend	-10.5456
▁seconde	-10.546
▁result	-10.547
ême	-10.5473
▁rencontrée	-10.5476
▁efforts	-10.5498
▁German	-10.5507
ôt	-10.551
▁weeks	-10.5515
▁Hurry	-10.5523
▁folle	-10.5523
▁government	-10.5523
▁hundred	-10.5523
▁levé	-10.5523
▁possède	-10.5523
▁remarqué	-10.5523
▁vivant	-10.5523
▁preuve	-10.5523
▁politique	-10.5523
▁réellement	-10.5523
▁blind	-10.5523
▁habitué	-10.5523
▁sucre	-10.5523
▁bouteille	-10.5523
▁tiré	-10.5524
▁Hier	-10.5528
▁nouveaux	-10.5537
▁proposal	-10.554
▁réveillé	-10.5541
▁semblez	-10.557
▁faster	-10.5573
▁fi	-10.5582
▁wise	-10.5584
ouille	-10.5587
ator	-10.5617
▁lors	-10.5639
▁droite	-10.5647
▁animal	-10.5663
▁cap	-10.5682
▁rule	-10.5698
▁sache	-10.5702
▁poli	-10.5707
▁mignon	-10.5709
▁fume	-10.5711
▁conduis	-10.5712
▁record	-10.5712
▁véritable	-10.5712
▁dingue	-10.5712
▁rarement	-10.5712
▁march	-10.5713
▁ancien	-10.5713
▁mille	-10.5714
30	-10.5714
▁embrassé	-10.5714
▁notice	-10.572
▁quitté	-10.5721
▁received	-10.5725
row	-10.5729
▁regrette	-10.5766
▁fail	-10.5768
▁taller	-10.5782
board	-10.5782
bra	-10.5814
▁cats	-10.582
▁importe	-10.5831
▁ball	-10.5833
▁prom	-10.5837
▁tient	-10.584
▁sel	-10.5847
▁aille	-10.585
ank	-10.5851
▁ferait	-10.5851
▁apples	-10.5864
▁souhaite	-10.588
▁loud	-10.5891
semblait	-10.5891
▁reach	-10.5897
ouvre	-10.5897
low	-10.5902
▁million	-10.5904
▁extreme	-10.5904
▁suicide	-10.5904
▁mouth	-10.5904
▁agréable	-10.5904
▁peace	-10.5904
▁Life	-10.5904
▁stuck	-10.5904
▁imaginé	-10.5906
▁voleur	-10.5906
▁répondu	-10.5907
▁slowly	-10.5909
▁vérifier	-10.5913
ative	-10.5914
▁stolen	-10.5924
▁allow	-10.5927
▁gentille	-10.5929
▁entend	-10.5936
▁prove	-10.5941
▁ordered	-10.5944
▁native	-10.5949
▁saved	-10.5949
▁disent	-10.5951
▁wash	-10.5956
essaie	-10.5958
occasion	-10.5959
lève	-10.5961
▁devenue	-10.5975
▁dents	-10.5976
▁younger	-10.5982
▁beat	-10.5984
▁savons	-10.6004
▁adresse	-10.6025
▁Per	-10.6027
▁lied	-10.6034
entends	-10.6037
▁fruits	-10.6045
▁aura	-10.6059
▁3	-10.6067
▁rencontrés	-10.6068
aurait	-10.6072
aille	-10.6082
teindre	-10.6086
inquiète	-10.61
▁Australia	-10.61
▁awake	-10.61
▁familiar	-10.61
▁invitation	-10.61
▁natural	-10.61
▁vôtre	-10.61
▁étrangère	-10.61
▁feet	-10.61
▁promets	-10.61
▁clever	-10.61
▁paix	-10.61
▁valeur	-10.61
▁body	-10.61
▁stone	-10.61
▁avoid	-10.61
▁brave	-10.61
▁corde	-10.61
assurer	-10.61
▁sugar	-10.6101
▁correctement	-10.6102
▁merci	-10.6105
▁char	-10.611
▁drank	-10.6118
▁allergi	-10.6128
▁returned	-10.6129
▁stranger	-10.6135
▁intéressée	-10.6147
▁grandi	-10.6156
▁chaude	-10.6164
▁idées	-10.6167
▁profit	-10.6169
▁driver	-10.6175
▁land	-10.6202
▁Vo	-10.6213
ière	-10.6223
▁tickets	-10.6228
▁entreprise	-10.6232
▁sale	-10.6235
sol	-10.6245
envers	-10.6252
ront	-10.6282
excuser	-10.6291
▁Excuse	-10.6294
▁puissi	-10.6296
▁appear	-10.6299
Angleterre	-10.63
▁Osaka	-10.63
▁compagnie	-10.63
▁dommage	-10.63
▁faveur	-10.63
▁guilty	-10.63
▁échoué	-10.63
▁disparu	-10.63
▁bread	-10.63
▁document	-10.63
▁morceau	-10.63
▁couteau	-10.63
urgence	-10.6301
▁green	-10.6301
▁chef	-10.6301
▁gérer	-10.6301
▁silent	-10.6301
▁trahi	-10.6302
▁trouvait	-10.6303
▁mo	-10.6303
▁tears	-10.6304
▁further	-10.6304
▁revenir	-10.6312
▁concern	-10.6317
▁hasard	-10.6327
▁dort	-10.6329
▁moqu	-10.6331
▁Pas	-10.6332
▁considered	-10.6332
▁ski	-10.6357
mettez	-10.6359
apprendre	-10.6364
▁See	-10.6368
▁prévois	-10.6376
▁copie	-10.638
▁laver	-10.6393
▁espoir	-10.6394
▁dispos	-10.6395
▁avance	-10.6395
ked	-10.6406
▁H	-10.6408
line	-10.6409
▁porté	-10.6412
▁Lo	-10.6424
▁pratique	-10.6441
étudier	-10.6448
rib	-10.6469
▁censé	-10.648
▁sentiments	-10.6487
apporté	-10.6491
▁sauvé	-10.6504
▁cinéma	-10.6504
▁ensuite	-10.6504
▁excited	-10.6504
▁gauche	-10.6504
▁gunshot	-10.6504
▁history	-10.6504
▁kitchen	-10.6504
▁mémoire	-10.6504
▁rumeur	-10.6504
▁volunteer	-10.6504
▁étudié	-10.6504
▁faible	-10.6504
▁crayon	-10.6504
▁Alors	-10.6504
▁sauf	-10.6504
▁bored	-10.6505
▁weird	-10.6505
▁suddenly	-10.6508
▁salt	-10.651
▁faisais	-10.6516
▁complaining	-10.6517
▁seront	-10.6519
▁savent	-10.6521
▁tight	-10.6525
▁following	-10.6533
▁pourriez	-10.6543
till	-10.655
cal	-10.655
▁remettre	-10.6557
▁learning	-10.6566
ouvrir	-10.657
expérience	-10.6571
▁meaning	-10.6573
▁jou	-10.6578
▁couper	-10.6585
▁mom	-10.6596
▁sooner	-10.6604
▁prendrai	-10.661
▁30	-10.6612
▁cré	-10.662
▁japonaise	-10.662
▁dirai	-10.663
▁calling	-10.6631
▁vendre	-10.6644
▁résultat	-10.6683
▁tombe	-10.6685
▁prise	-10.6704
tter	-10.6706
▁intéressante	-10.671
épaule	-10.6713
▁England	-10.6713
▁cravate	-10.6713
▁doigt	-10.6713
▁particulier	-10.6713
▁responsible	-10.6713
▁science	-10.6713
▁verrouill	-10.6713
▁causé	-10.6713
▁détail	-10.6713
▁common	-10.6713
▁grew	-10.6713
▁pencil	-10.6713
▁aware	-10.6713
▁devraient	-10.6713
▁départ	-10.6713
▁larmes	-10.6713
▁sitting	-10.6716
ulle	-10.6717
▁faux	-10.6718
mong	-10.6721
embrasser	-10.6724
▁tenté	-10.6725
▁sombre	-10.6726
▁coupable	-10.6732
▁cried	-10.6735
▁certainly	-10.6741
andis	-10.6744
▁drop	-10.6744
▁nature	-10.6745
▁acting	-10.675
▁impressionné	-10.6754
▁parles	-10.6757
▁battre	-10.6758
▁fly	-10.6762
▁standing	-10.6766
▁4	-10.6777
entreprise	-10.6784
▁essaya	-10.6799
▁arrêt	-10.681
▁arbres	-10.6814
▁heureuses	-10.6855
▁affect	-10.6861
approch	-10.6871
▁aiment	-10.6873
▁nine	-10.689
▁tenu	-10.6896
cour	-10.6901
▁taste	-10.6908
▁contrôle	-10.6909
▁cross	-10.691
▁confi	-10.6912
▁Garde	-10.6919
▁critique	-10.6923
▁Children	-10.6925
▁humain	-10.6925
▁knife	-10.6925
▁navire	-10.6925
▁nobody	-10.6925
▁cloche	-10.6925
▁rumor	-10.6925
▁théorie	-10.6925
▁plaindre	-10.6925
▁finger	-10.6927
▁cookies	-10.6928
▁worst	-10.6929
▁arrested	-10.693
▁portait	-10.6931
▁Voyez	-10.6934
lar	-10.6935
▁carrie	-10.6937
▁soient	-10.6941
▁iron	-10.6943
▁trou	-10.6955
giving	-10.6955
ities	-10.6968
ally	-10.6968
▁interrupt	-10.6969
▁enfin	-10.6971
intéresse	-10.6974
▁missing	-10.6987
▁aimes	-10.6998
2	-10.6999
information	-10.7001
▁fed	-10.7021
▁Ser	-10.7035
ivent	-10.7036
▁probable	-10.7037
▁buying	-10.7047
▁speaker	-10.7071
▁bear	-10.7074
▁convince	-10.7112
ouer	-10.7116
▁règle	-10.7124
▁map	-10.7125
▁Sortez	-10.7143
▁américain	-10.7143
▁behavior	-10.7143
▁paraît	-10.7143
▁protéger	-10.7143
▁éveillé	-10.7143
▁dirty	-10.7143
▁résolu	-10.7143
▁silence	-10.7143
▁wedding	-10.7143
▁position	-10.7143
▁translate	-10.7143
▁planning	-10.7143
▁menteur	-10.7143
▁comfortable	-10.7144
▁pause	-10.7144
▁fière	-10.7144
▁detail	-10.7145
▁mignonne	-10.7146
▁apartment	-10.7146
▁lift	-10.7146
▁bigger	-10.7147
▁vitesse	-10.7147
▁parfaitement	-10.7148
▁shocked	-10.7148
▁Read	-10.7148
▁Dispose	-10.7154
▁vain	-10.7156
▁reached	-10.716
▁view	-10.7163
▁single	-10.7172
imeriez	-10.7183
▁visiter	-10.7186
▁Ho	-10.7201
épouser	-10.7201
▁haute	-10.7216
bu	-10.7234
▁œufs	-10.724
rain	-10.7253
▁servi	-10.7264
▁8	-10.7267
amuser	-10.7277
▁prendra	-10.7281
▁monté	-10.7281
▁refusa	-10.7288
king	-10.7332
▁complain	-10.7332
▁écouter	-10.7339
appellerai	-10.7344
▁hang	-10.7352
alité	-10.7355
▁paie	-10.7361
▁China	-10.7365
▁absolument	-10.7365
▁explanation	-10.7365
▁légumes	-10.7365
▁opportunity	-10.7365
▁policier	-10.7365
▁rempli	-10.7365
▁require	-10.7365
▁delighted	-10.7365
▁entire	-10.7366
▁peinture	-10.7366
▁Essayez	-10.7369
▁drinks	-10.7372
▁pêcher	-10.7375
oir	-10.7376
▁connaissez	-10.7377
place	-10.7377
▁pique	-10.7378
▁slow	-10.7382
▁smarter	-10.7389
▁gas	-10.7398
▁pourrions	-10.74
▁healthy	-10.7403
▁expecting	-10.7405
▁foule	-10.7408
▁friendly	-10.7433
▁trucs	-10.7445
▁contract	-10.7447
temps	-10.7448
importance	-10.745
adresse	-10.7451
9	-10.7451
hiver	-10.7453
▁watched	-10.7458
▁nose	-10.7471
▁Parle	-10.7477
▁mets	-10.7487
▁accepté	-10.7517
▁expérience	-10.7518
▁Non	-10.7525
▁helping	-10.7528
▁épouse	-10.7532
▁expliquer	-10.7538
▁parties	-10.7568
▁contrarié	-10.7572
▁rains	-10.7573
▁trompe	-10.7576
▁jambe	-10.7583
▁Chine	-10.7589
▁candidat	-10.7591
▁commis	-10.7592
exercice	-10.7592
▁Somebody	-10.7592
▁incapable	-10.7592
▁pizza	-10.7592
▁schedule	-10.7592
▁shoot	-10.7592
▁States	-10.7592
▁client	-10.7592
▁lecture	-10.7592
▁lycée	-10.7592
▁salaire	-10.7592
▁trick	-10.7592
▁boring	-10.7592
▁nerveux	-10.7593
hook	-10.7593
▁voudriez	-10.7593
▁responsibility	-10.7594
▁Watch	-10.7594
▁flight	-10.7594
▁gold	-10.7595
▁lazy	-10.7595
▁eff	-10.7595
▁bath	-10.7597
▁Mets	-10.7602
▁rendit	-10.7607
ima	-10.7608
▁months	-10.7611
▁shoulder	-10.7614
▁sea	-10.7617
▁huit	-10.762
▁fortune	-10.7624
▁retire	-10.7628
▁noticed	-10.763
ball	-10.7631
▁laissa	-10.7646
▁venus	-10.7688
▁Fi	-10.7702
▁vote	-10.7709
▁rêves	-10.7718
▁divorce	-10.7727
▁tien	-10.773
ship	-10.7739
▁nourri	-10.7777
▁conte	-10.7778
▁Ro	-10.7789
▁réfléchi	-10.7806
▁relax	-10.7809
▁unique	-10.781
▁vase	-10.7812
▁hid	-10.7813
▁couvert	-10.7824
:	-10.7825
▁license	-10.7825
▁purpose	-10.7825
▁scream	-10.7825
▁suggère	-10.7825
humeur	-10.7825
▁Sometimes	-10.7825
▁local	-10.7825
▁bagages	-10.7825
▁pierre	-10.7825
▁poem	-10.7825
▁teeth	-10.7825
▁eight	-10.7826
▁absolutely	-10.7826
▁entièrement	-10.7827
▁débarrasser	-10.7831
▁confused	-10.7834
▁disputer	-10.7838
▁prêts	-10.785
▁insist	-10.7853
née	-10.7856
▁draw	-10.7859
▁assistance	-10.7867
▁hide	-10.7867
▁resta	-10.7869
▁manqu	-10.787
▁changement	-10.7872
▁listened	-10.7883
admir	-10.7897
▁clock	-10.7907
équipe	-10.7922
érer	-10.7952
▁casse	-10.7971
▁total	-10.7976
▁seules	-10.7976
▁paire	-10.7978
ami	-10.8006
▁Po	-10.8021
▁barbe	-10.8031
car	-10.8038
▁nez	-10.804
▁fil	-10.8052
▁sérieuse	-10.8057
oli	-10.8061
capacité	-10.8063
incendie	-10.8063
énergie	-10.8063
▁album	-10.8063
▁argument	-10.8063
▁chicken	-10.8063
▁décédé	-10.8063
▁gaspill	-10.8063
▁miracle	-10.8063
▁possibility	-10.8063
▁poème	-10.8063
▁scientifique	-10.8063
▁vegetables	-10.8063
▁bright	-10.8063
▁double	-10.8063
▁croit	-10.8063
▁option	-10.8063
▁canapé	-10.8063
▁amoureuse	-10.8063
▁bedroom	-10.8064
▁saoul	-10.8064
▁bike	-10.8065
▁comportement	-10.8067
▁moon	-10.807
▁tienne	-10.8072
▁nuts	-10.8074
▁vint	-10.8076
▁arriva	-10.8076
abord	-10.8077
▁confectionné	-10.8078
▁washing	-10.8081
▁appartement	-10.8082
▁sub	-10.8099
▁averti	-10.81
▁cash	-10.8105
▁dreams	-10.8107
▁judge	-10.8109
▁singer	-10.8112
▁ailles	-10.8127
▁100	-10.8134
▁oui	-10.8142
▁vendu	-10.8151
gg	-10.8164
T	-10.8167
▁plat	-10.8171
▁6	-10.8175
▁Connais	-10.8224
ordre	-10.8228
amis	-10.8229
eille	-10.8242
lie	-10.8254
▁impression	-10.826
oire	-10.8263
▁désir	-10.8273
▁sage	-10.8279
aîné	-10.8285
▁fr	-10.8289
▁rou	-10.829
embrass	-10.829
▁climb	-10.8291
▁juge	-10.8299
▁cache	-10.83
lement	-10.8301
▁human	-10.8302
▁amusée	-10.8304
▁appointment	-10.8307
▁faudra	-10.8307
▁sandwich	-10.8307
▁siège	-10.8307
▁subject	-10.8307
▁attempt	-10.8307
▁costume	-10.8307
▁inutile	-10.8307
▁rédui	-10.8307
▁confirm	-10.8307
▁kidding	-10.8307
▁Canada	-10.8307
▁harm	-10.8307
▁caisse	-10.8307
▁dropped	-10.8307
▁attractive	-10.8307
hésit	-10.8308
▁réalité	-10.8308
▁attentivement	-10.8309
▁exhausted	-10.8309
apporter	-10.8309
▁Montre	-10.8311
▁coût	-10.8321
▁suivant	-10.8326
ime	-10.8334
▁soupe	-10.8342
▁interest	-10.835
▁songé	-10.8353
▁spoken	-10.8356
▁Oh	-10.8358
▁mili	-10.8358
▁admire	-10.836
▁Étai	-10.8363
▁mour	-10.8365
▁add	-10.8366
▁viré	-10.8367
▁rentre	-10.8368
▁low	-10.8374
rop	-10.8374
▁math	-10.838
▁état	-10.838
▁obtenir	-10.8386
▁product	-10.8388
▁fermée	-10.8412
Amérique	-10.8414
8	-10.8415
▁hero	-10.8418
▁couch	-10.8419
▁ennemi	-10.8422
▁demand	-10.8426
inter	-10.8438
▁forever	-10.8442
▁préférée	-10.8442
▁7	-10.8444
▁hearing	-10.8448
▁idiote	-10.8459
▁cartes	-10.8461
▁hiver	-10.8463
▁chocolat	-10.8466
lose	-10.8495
▁sentai	-10.8511
avenir	-10.8528
▁burn	-10.8542
▁veuilles	-10.8542
▁jump	-10.8549
▁doté	-10.8549
▁nouvel	-10.8551
▁relation	-10.8557
envoyer	-10.8557
▁amazing	-10.8557
▁available	-10.8557
▁church	-10.8557
▁circulation	-10.8557
▁curious	-10.8557
▁dépourvu	-10.8557
▁energy	-10.8557
▁gentleman	-10.8557
▁grandmother	-10.8557
▁piscine	-10.8557
▁practice	-10.8557
▁produire	-10.8557
▁progress	-10.8557
▁retraite	-10.8557
▁silencieux	-10.8557
▁tâche	-10.8557
▁brisé	-10.8557
▁calcul	-10.8557
▁précipit	-10.8557
▁countries	-10.8557
▁dérangé	-10.8557
▁Rome	-10.8557
▁Voilà	-10.8557
▁weapon	-10.8557
▁découvrir	-10.8557
▁chacun	-10.8557
▁attach	-10.8557
▁gain	-10.8558
▁scene	-10.8558
▁loss	-10.8558
▁bouche	-10.8559
▁theory	-10.8559
▁Sors	-10.8559
▁recently	-10.8561
▁rope	-10.8561
▁Vois	-10.8562
▁disposons	-10.8563
▁tomba	-10.8565
▁veuille	-10.8565
▁hiding	-10.8572
étend	-10.8573
▁personal	-10.8573
▁connaisse	-10.8576
▁suggestion	-10.8578
▁entered	-10.8587
▁rencontr	-10.8594
▁raconter	-10.8595
emporter	-10.8599
▁mecs	-10.8599
▁explained	-10.8608
▁considér	-10.8614
▁fan	-10.8615
raw	-10.8619
ature	-10.8622
eus	-10.864
▁tend	-10.8646
▁donnerai	-10.8649
▁mode	-10.8656
7	-10.8671
avaient	-10.8672
endroit	-10.8672
▁tente	-10.8691
enseigner	-10.8705
habite	-10.8705
▁group	-10.8728
▁flo	-10.8741
arrête	-10.875
▁présente	-10.875
▁pensai	-10.8758
▁compar	-10.8763
▁pensent	-10.878
▁stole	-10.8787
▁intend	-10.88
▁rendue	-10.8805
rang	-10.8807
▁profond	-10.8812
▁égal	-10.8813
église	-10.8813
▁Saturday	-10.8813
▁cercle	-10.8813
▁disponible	-10.8813
▁earthquake	-10.8813
▁improve	-10.8813
▁picnic	-10.8813
▁populaire	-10.8813
▁strict	-10.8813
▁trompé	-10.8813
▁soccer	-10.8813
indiquer	-10.8813
▁credit	-10.8813
▁privé	-10.8813
▁expert	-10.8813
▁ground	-10.8813
▁disease	-10.8813
▁samedi	-10.8814
▁poison	-10.8814
▁épuisé	-10.8814
▁employé	-10.8814
▁panne	-10.8815
▁blow	-10.8817
▁policeman	-10.8818
▁bicyclette	-10.882
▁Montrez	-10.882
▁video	-10.8821
étique	-10.8822
▁laissée	-10.8823
▁Tes	-10.8824
▁style	-10.8827
▁skier	-10.8831
offe	-10.8836
▁jeter	-10.8836
▁locked	-10.8837
▁Faisons	-10.8837
▁exercise	-10.8842
▁puni	-10.8848
▁concerned	-10.8851
ock	-10.8852
▁size	-10.8854
▁culture	-10.8855
▁arrivera	-10.8855
▁serons	-10.8859
▁feuilles	-10.888
arme	-10.8884
▁trusted	-10.889
▁Moi	-10.8895
▁disposé	-10.8898
▁starting	-10.8899
appel	-10.8911
D	-10.8912
▁quant	-10.8919
anniversaire	-10.8935
▁bare	-10.8944
▁bleu	-10.8944
▁voie	-10.8958
▁retirer	-10.9004
▁malin	-10.9011
▁limite	-10.9012
▁celles	-10.9021
▁mar	-10.9021
imagin	-10.904
▁exist	-10.9041
▁demandai	-10.9043
pped	-10.9046
achète	-10.9053
▁dad	-10.9058
▁Ferme	-10.907
▁dorm	-10.9072
▁prêtes	-10.9074
éclair	-10.9076
alcool	-10.9076
entraîne	-10.9076
▁conscient	-10.9076
▁dirige	-10.9076
▁hobby	-10.9076
▁lâche	-10.9076
▁reproche	-10.9076
▁sharp	-10.9076
▁themselves	-10.9076
▁volontaire	-10.9076
▁pool	-10.9076
▁devient	-10.9076
▁permettre	-10.9077
▁prize	-10.9077
▁rock	-10.9077
▁photograph	-10.9077
▁understood	-10.9078
▁Mother	-10.9079
▁dying	-10.9081
▁covered	-10.9083
▁sensible	-10.9083
▁sauver	-10.9084
▁chansons	-10.9085
▁monter	-10.9087
▁plainte	-10.9087
▁Eh	-10.9089
▁weak	-10.9095
amuse	-10.9099
▁Th	-10.9101
▁ear	-10.9101
▁rose	-10.9106
▁survenu	-10.9107
▁Pro	-10.9108
▁vive	-10.9109
▁résultats	-10.9113
▁tourist	-10.9128
▁tiens	-10.9137
▁sommet	-10.9143
bar	-10.9144
ack	-10.9145
▁marre	-10.915
▁rende	-10.9152
▁tourner	-10.9167
▁assise	-10.9168
▁chocolate	-10.9172
▁brûl	-10.9187
1	-10.9201
O	-10.9206
▁tirer	-10.9224
rice	-10.9232
▁difficultés	-10.9236
▁complet	-10.9237
▁décida	-10.9243
▁accepter	-10.9254
▁invités	-10.9269
▁neighbors	-10.9271
▁tourne	-10.9276
▁supporte	-10.9288
▁damage	-10.9297
▁mariés	-10.93
▁soi	-10.9308
▁mauvaises	-10.931
▁discut	-10.9319
iff	-10.9321
▁hung	-10.9346
▁Accord	-10.9347
intérêt	-10.9347
ouvrit	-10.9347
▁Attends	-10.9347
▁advantage	-10.9347
▁examination	-10.9347
▁leva	-10.9347
▁similar	-10.9347
▁veniez	-10.9347
▁university	-10.9347
▁instead	-10.9347
▁camion	-10.9347
▁losing	-10.9347
▁meurtre	-10.9347
▁toward	-10.9347
▁copain	-10.9347
▁crédit	-10.9347
▁dishes	-10.9347
▁profondément	-10.9347
▁forgotten	-10.9347
▁prevent	-10.9347
▁leader	-10.9347
▁grass	-10.9348
▁protest	-10.9349
▁useful	-10.9352
▁chanceux	-10.9353
▁chant	-10.9361
▁text	-10.9363
▁joué	-10.9364
étudie	-10.9369
▁pousser	-10.9373
▁fac	-10.9376
▁général	-10.9383
▁effort	-10.9383
▁programme	-10.9386
hu	-10.9387
▁dirais	-10.9391
▁Passe	-10.9392
▁timide	-10.9398
▁abandonné	-10.9408
▁results	-10.9425
▁laid	-10.9456
▁songs	-10.9459
mons	-10.9459
▁cop	-10.9472
agir	-10.9474
P	-10.9485
▁nation	-10.9491
erreur	-10.9492
▁player	-10.9493
▁web	-10.951
▁king	-10.9514
▁legs	-10.9548
▁répond	-10.9567
▁invitée	-10.9576
▁roses	-10.9595
▁ears	-10.9595
▁dispute	-10.9609
▁crowd	-10.9609
▁défi	-10.9609
ordinaire	-10.9615
▁batt	-10.9618
▁Ét	-10.9621
▁satisfaite	-10.9623
▁approach	-10.9624
▁absence	-10.9624
▁disagree	-10.9624
▁excité	-10.9624
▁ouvrage	-10.9624
▁peindre	-10.9624
▁seldom	-10.9624
▁system	-10.9624
▁système	-10.9624
▁vidéo	-10.9624
▁robbe	-10.9624
amitié	-10.9624
▁argue	-10.9624
▁voyez	-10.9625
▁terme	-10.9625
▁assume	-10.9625
▁Help	-10.9625
▁private	-10.9625
▁Any	-10.9625
▁spell	-10.9625
▁Demain	-10.9626
▁provide	-10.9627
▁thousand	-10.9627
▁accusé	-10.9628
arrange	-10.9628
▁prior	-10.9635
spect	-10.9636
échapper	-10.9636
▁entré	-10.9637
▁lady	-10.964
admet	-10.9644
▁ruin	-10.9648
▁contrariée	-10.965
cou	-10.9653
▁fighting	-10.9654
arrêta	-10.9672
▁assister	-10.968
▁drug	-10.9696
▁auras	-10.9696
▁tenai	-10.9696
▁laisserai	-10.9699
member	-10.9707
▁commande	-10.9713
▁roi	-10.9719
▁ended	-10.972
▁cards	-10.9734
▁writer	-10.9748
▁différente	-10.9749
▁race	-10.9749
ô	-10.9758
▁voisin	-10.9762
▁enseigne	-10.9777
▁extra	-10.9799
▁centre	-10.9799
▁courte	-10.982
▁toucher	-10.9835
▁âgée	-10.9844
iser	-10.9849
iche	-10.9858
▁capital	-10.9871
▁cheap	-10.9896
▁pack	-10.9899
▁différentes	-10.99
▁push	-10.9904
accompli	-10.991
%	-10.991
▁advance	-10.991
▁compliqué	-10.991
▁devais	-10.991
▁diplômé	-10.991
▁emergency	-10.991
▁fréquen	-10.991
▁inquiet	-10.991
▁merveilleux	-10.991
▁pleasure	-10.991
▁régime	-10.991
▁souffre	-10.991
▁supplémentaire	-10.991
▁twenty	-10.991
▁atteint	-10.991
▁prisonnier	-10.991
▁Dépêche	-10.991
▁cream	-10.991
▁déprimé	-10.991
▁Father	-10.991
▁étoile	-10.991
▁offended	-10.991
▁shall	-10.991
▁suffisant	-10.991
▁caché	-10.991
▁entendue	-10.991
▁sour	-10.9911
▁nurse	-10.9911
▁shy	-10.9911
▁wallet	-10.9911
hrew	-10.9911
▁guide	-10.9912
▁oiseaux	-10.9912
▁tough	-10.9913
▁posé	-10.9916
▁gars	-10.9916
▁présenté	-10.9917
▁consist	-10.9918
▁sweater	-10.9918
▁blesser	-10.992
▁raté	-10.9923
▁skiing	-10.993
▁riz	-10.9931
▁contrôler	-10.9932
▁Japonais	-10.9932
▁diet	-10.9933
▁effrayé	-10.9936
▁matinée	-10.9936
▁salu	-10.9937
▁depressed	-10.9946
ûmes	-10.9947
haps	-10.9948
fully	-10.9953
ary	-10.9953
▁pressé	-10.9957
▁escaped	-10.9963
▁accepted	-10.9965
▁personnel	-10.9976
▁acc	-10.9981
▁limit	-10.9981
▁foi	-10.9998
▁imm	-11.0003
▁tru	-11.0018
▁rained	-11.0025
▁paying	-11.0025
imagine	-11.0031
▁resign	-11.0045
▁national	-11.0061
avant	-11.0064
accepter	-11.0074
▁habitude	-11.0079
▁ressenti	-11.0079
▁site	-11.0079
▁Op	-11.0086
▁essay	-11.0102
▁climat	-11.0109
▁conseille	-11.0119
▁touché	-11.014
▁retourne	-11.0145
▁voisins	-11.0151
oubli	-11.0159
▁allées	-11.016
▁cops	-11.0169
ump	-11.0173
oppos	-11.0202
▁soudain	-11.0203
▁collect	-11.0204
▁recommend	-11.0204
▁éteint	-11.0204
institutrice	-11.0204
▁Jackson	-11.0204
▁childhood	-11.0204
▁célibataire	-11.0204
▁dancing	-11.0204
▁devait	-11.0204
▁ennuyeux	-11.0204
▁furniture	-11.0204
▁hâte	-11.0204
▁obvious	-11.0204
▁ourselves	-11.0204
▁pouviez	-11.0204
▁remarque	-11.0204
▁upstairs	-11.0204
▁utilisé	-11.0204
▁Tiens	-11.0204
▁annulé	-11.0204
▁bonheur	-11.0204
▁mood	-11.0204
assurance	-11.0204
▁Mettez	-11.0204
▁temperature	-11.0204
▁engine	-11.0204
▁veste	-11.0204
▁clef	-11.0204
▁16	-11.0204
▁social	-11.0205
▁verrai	-11.0205
▁semblant	-11.0206
▁Time	-11.0208
▁anyway	-11.0209
▁Tenez	-11.021
▁commandé	-11.0211
▁douce	-11.0211
▁embarrassed	-11.0212
▁portable	-11.0212
▁appelle	-11.0216
▁anti	-11.0223
usine	-11.0226
▁joueur	-11.0229
▁CD	-11.023
ffe	-11.0235
▁talented	-11.0237
▁suffit	-11.0238
oblige	-11.024
▁parvenir	-11.0248
▁disposer	-11.025
▁hire	-11.025
▁aurez	-11.0251
▁dentiste	-11.0261
▁issue	-11.0264
▁saches	-11.0283
▁soldats	-11.0289
▁amour	-11.029
▁oiseau	-11.0303
way	-11.0308
▁express	-11.0308
▁oldest	-11.0308
▁sw	-11.0311
▁construit	-11.0325
pite	-11.0349
▁bienvenue	-11.036
avance	-11.0364
6	-11.0365
ennemi	-11.0365
espoir	-11.0366
▁membres	-11.037
▁wi	-11.0383
tract	-11.0404
▁restée	-11.0411
▁artist	-11.042
▁dentist	-11.0449
▁alarm	-11.0455
▁vraie	-11.0455
▁cassée	-11.0471
epuis	-11.0472
▁survive	-11.0476
▁réveillée	-11.0478
▁coupé	-11.0495
▁trouva	-11.0499
▁devra	-11.0499
▁Leur	-11.0501
▁custom	-11.0507
œuvre	-11.0507
▁Appelle	-11.0507
▁Internet	-11.0507
▁Jamais	-11.0507
▁attitude	-11.0507
▁brush	-11.0507
▁campagne	-11.0507
▁easier	-11.0507
▁email	-11.0507
▁fassiez	-11.0507
▁goodbye	-11.0507
▁hurried	-11.0507
▁portefeuille	-11.0507
▁prouver	-11.0507
▁punctual	-11.0507
▁third	-11.0507
▁élégant	-11.0507
▁gâch	-11.0507
▁soldiers	-11.0507
emmener	-11.0507
▁failli	-11.0508
▁pardonner	-11.0508
▁blessure	-11.0508
▁réveil	-11.0509
▁ferions	-11.0511
▁Eat	-11.0513
▁image	-11.0514
▁Rend	-11.0515
▁candle	-11.0516
▁Excusez	-11.0517
▁flu	-11.0519
▁jambes	-11.052
▁manuel	-11.0522
▁burned	-11.0526
▁pli	-11.0532
▁highly	-11.0542
▁tastes	-11.0543
▁sentez	-11.0545
▁mayor	-11.0546
▁égard	-11.0549
▁planté	-11.0549
▁sert	-11.055
▁biscuits	-11.0557
▁jouai	-11.057
▁?"	-11.0587
usqu	-11.0587
▁Australie	-11.0589
▁souper	-11.0591
▁timbres	-11.0602
▁venez	-11.0609
▁arrière	-11.0632
▁20	-11.0653
▁lovely	-11.0654
▁Du	-11.068
entrée	-11.0686
▁aimez	-11.0686
▁entra	-11.0688
▁reconnaissante	-11.0692
▁plantes	-11.0695
erie	-11.072
▁50	-11.0734
▁naturel	-11.0735
▁neiger	-11.0737
▁permet	-11.0753
exprimer	-11.0754
▁supplie	-11.0755
▁É	-11.0757
▁affair	-11.0765
▁comporte	-11.0797
▁attack	-11.0804
▁vérifi	-11.0806
▁thin	-11.0814
isible	-11.0816
▁soutien	-11.0817
graph	-11.0818
▁ressent	-11.0819
▁conclu	-11.0819
▁génial	-11.082
▁habillé	-11.082
explosion	-11.082
▁Attendez	-11.082
▁Continue	-11.082
▁Thomas	-11.082
▁concentrer	-11.082
▁criminal	-11.082
▁describe	-11.082
▁dépensé	-11.082
▁efficace	-11.082
▁fâché	-11.082
▁insurance	-11.082
▁passport	-11.082
▁écrivain	-11.082
▁encourage	-11.082
▁méchant	-11.082
honneur	-11.082
▁steak	-11.082
▁gather	-11.082
▁enfance	-11.082
▁offensé	-11.082
▁naked	-11.082
quinze	-11.082
▁example	-11.082
▁foolish	-11.0821
▁failure	-11.0821
▁posa	-11.0824
▁truck	-11.0825
▁Mars	-11.0827
▁fever	-11.0829
▁repair	-11.0829
▁fairly	-11.0831
▁confident	-11.0836
▁cacher	-11.0841
▁complained	-11.0842
cked	-11.0845
▁washed	-11.0846
▁reply	-11.0847
▁séjourn	-11.0847
▁introduced	-11.0848
logique	-11.0855
auteur	-11.0859
▁ignor	-11.0867
▁touche	-11.0867
▁traveling	-11.0868
▁disait	-11.0872
▁née	-11.0876
▁mission	-11.0876
▁quitte	-11.0879
▁exception	-11.0886
▁Sur	-11.0896
▁cesser	-11.0896
▁fleur	-11.0908
▁Croi	-11.0912
▁sales	-11.092
▁closer	-11.0934
▁Say	-11.0946
▁sortit	-11.0955
ison	-11.0966
▁alliez	-11.0982
▁miles	-11.0986
entrer	-11.0991
instituteur	-11.1
emploi	-11.1002
éro	-11.1002
fum	-11.101
habitue	-11.1019
▁importance	-11.102
▁ble	-11.1041
▁producti	-11.1054
ombre	-11.1074
ignorer	-11.1084
amie	-11.1104
▁essaie	-11.1111
▁pleure	-11.1119
,000	-11.1126
▁ponctuel	-11.1142
ommençons	-11.1142
éducation	-11.1142
▁Trouve	-11.1142
▁adorable	-11.1142
▁arguing	-11.1142
▁awesome	-11.1142
▁confess	-11.1142
▁downstairs	-11.1142
▁magnifique	-11.1142
▁passeport	-11.1142
▁possession	-11.1142
▁postpone	-11.1142
▁proximité	-11.1142
▁surprend	-11.1142
▁thief	-11.1142
▁unhappy	-11.1142
▁voulaient	-11.1142
▁violence	-11.1142
▁knee	-11.1142
▁denied	-11.1142
▁headache	-11.1142
ennuie	-11.1142
▁obey	-11.1142
quête	-11.1142
▁rough	-11.1143
▁speed	-11.1143
▁instructions	-11.1143
▁diary	-11.1143
▁blanche	-11.1143
écart	-11.1144
▁Terre	-11.1144
▁coincé	-11.1144
▁forêt	-11.1144
▁souhaiterais	-11.1145
▁clairement	-11.1145
▁allumé	-11.1145
▁serviette	-11.1146
▁moral	-11.1148
▁abandoned	-11.1148
▁répéter	-11.1149
▁model	-11.1149
▁chercha	-11.1149
▁démissionner	-11.1152
N	-11.1152
▁graduated	-11.1156
▁bouger	-11.1157
▁Mange	-11.1157
▁source	-11.1157
apprécierais	-11.1165
▁hill	-11.117
▁debt	-11.1174
▁huge	-11.1174
▁hired	-11.1177
▁aisé	-11.1188
▁sentie	-11.1192
▁bête	-11.1207
▁nourrir	-11.1209
onnaissez	-11.1221
▁étage	-11.1221
▁appartient	-11.1225
▁neighbor	-11.1233
ngage	-11.1239
▁abandonner	-11.1239
▁touched	-11.1252
▁complete	-11.127
ssait	-11.1274
▁Shu	-11.1275
▁flics	-11.1275
▁stamps	-11.1276
▁instituteur	-11.1287
▁artiste	-11.1299
▁demi	-11.1316
▁Amérique	-11.133
▁pig	-11.133
▁gro	-11.1332
»	-11.1335
étudiant	-11.1336
H	-11.1338
▁fourni	-11.1359
▁rice	-11.1367
allez	-11.1374
▁remis	-11.1389
▁bite	-11.1394
▁members	-11.1399
▁Of	-11.1416
▁génér	-11.143
▁jeux	-11.1433
▁advise	-11.1445
voi	-11.1461
▁dépêch	-11.1461
hoose	-11.1468
▁alentour	-11.1476
▁behave	-11.1476
▁betrayed	-11.1476
▁chère	-11.1476
▁fièvre	-11.1476
▁grateful	-11.1476
▁jacket	-11.1476
▁jalouse	-11.1476
▁moving	-11.1476
▁pantalon	-11.1476
▁température	-11.1476
▁ability	-11.1476
▁suspicious	-11.1476
▁suggér	-11.1476
▁journaux	-11.1476
▁occurred	-11.1476
▁réserve	-11.1476
▁toilettes	-11.1476
▁gaz	-11.1476
▁pneu	-11.1476
▁conférence	-11.1476
▁winning	-11.1476
▁chargé	-11.1476
essence	-11.1476
▁stairs	-11.1476
▁refer	-11.1476
▁sienne	-11.1476
▁craint	-11.1476
▁nerveuse	-11.1476
▁tremblement	-11.1476
▁crack	-11.1477
▁prenne	-11.1477
▁sofa	-11.1477
▁guard	-11.1477
pérons	-11.1478
▁repeat	-11.1479
▁convient	-11.1479
▁destination	-11.148
Italie	-11.1483
▁démarrer	-11.1488
▁rompu	-11.1488
▁goal	-11.149
isme	-11.1495
▁lower	-11.1496
▁traîn	-11.1505
accompagner	-11.1508
▁staring	-11.1516
▁divorced	-11.1521
▁application	-11.1522
▁désire	-11.1523
▁monnaie	-11.1527
▁parlent	-11.1537
▁quick	-11.1538
▁semblent	-11.1544
arrêt	-11.1545
▁Entre	-11.1546
▁warn	-11.1551
estim	-11.1558
▁cure	-11.1572
▁island	-11.1583
ussitôt	-11.16
▁handed	-11.1605
▁cesse	-11.1605
univers	-11.1613
▁cab	-11.1618
▁viennent	-11.1619
ouche	-11.1645
occupe	-11.1653
▁dry	-11.166
▁oil	-11.1661
▁answered	-11.1673
auriez	-11.1685
▁9	-11.1687
arrière	-11.1689
rois	-11.1692
▁rate	-11.1693
▁auto	-11.172
assit	-11.1727
▁réalis	-11.173
▁prof	-11.1737
apport	-11.1774
▁introduce	-11.1789
▁pêche	-11.1804
▁suffer	-11.1806
onner	-11.1818
▁Lâche	-11.182
Allemagne	-11.182
emmène	-11.182
économie	-11.182
▁2:30	-11.182
▁Compare	-11.182
▁Friday	-11.182
▁Harvard	-11.182
▁aliments	-11.182
▁aveugle	-11.182
▁brillant	-11.182
▁courrier	-11.182
▁drowned	-11.182
▁improbable	-11.182
▁pleasant	-11.182
▁pleuré	-11.182
▁refaire	-11.182
▁roof	-11.182
▁récemment	-11.182
▁rôle	-11.182
▁spectacle	-11.182
▁ugly	-11.182
▁contrat	-11.182
▁natif	-11.182
▁pleuvra	-11.182
▁ressens	-11.182
▁saving	-11.182
▁shake	-11.182
▁attirant	-11.182
▁kick	-11.182
▁amount	-11.182
▁despise	-11.182
▁greet	-11.182
▁vendredi	-11.182
▁Chacun	-11.1821
▁round	-11.1821
▁détendre	-11.1821
▁happiness	-11.1821
▁organisé	-11.1821
▁stock	-11.1821
▁dessert	-11.1821
acquérir	-11.1822
▁flat	-11.1822
▁violon	-11.1822
▁sauce	-11.1822
▁comprenez	-11.1824
▁ordres	-11.1825
▁frightened	-11.1826
▁butter	-11.1829
▁veuillez	-11.1829
▁plaisanterie	-11.1831
▁copy	-11.1841
▁exemple	-11.1843
entendi	-11.1844
▁justice	-11.1847
▁alternative	-11.1848
▁persuaded	-11.1849
▁Germany	-11.185
▁teaching	-11.1855
No	-11.1873
▁retourné	-11.1875
▁charger	-11.1881
▁served	-11.1882
▁appelée	-11.1883
▁baisse	-11.1886
▁voit	-11.1896
▁réalisé	-11.1897
issent	-11.19
▁usage	-11.19
aimez	-11.1901
▁solved	-11.1911
lin	-11.1914
ext	-11.1915
▁lately	-11.1917
▁traiter	-11.1931
main	-11.1946
▁rely	-11.1949
ify	-11.1949
dessous	-11.195
armée	-11.1983
▁perdit	-11.199
▁traversé	-11.2008
▁ravie	-11.2021
▁bleue	-11.2023
▁brûlé	-11.2029
▁réparé	-11.203
attention	-11.2037
coming	-11.2037
▁tenue	-11.2038
▁chatte	-11.204
chose	-11.2057
most	-11.2062
▁revienne	-11.2071
▁soif	-11.2081
essayez	-11.2087
▁victime	-11.2092
▁considéré	-11.2096
▁insult	-11.2104
▁impressionnée	-11.2107
▁occuper	-11.2108
▁fonctionner	-11.2108
▁organ	-11.2148
excus	-11.2153
▁Apporte	-11.2171
▁voudr	-11.2171
scription	-11.2175
▁author	-11.2177
immeuble	-11.2178
▁Fuji	-11.2178
▁Parfois	-11.2178
▁curieux	-11.2178
▁dizzy	-11.2178
▁education	-11.2178
▁familier	-11.2178
▁fashion	-11.2178
▁ghost	-11.2178
▁guère	-11.2178
▁jaloux	-11.2178
▁jazz	-11.2178
▁méprise	-11.2178
▁présence	-11.2178
▁unlikely	-11.2178
▁craign	-11.2178
▁stomach	-11.2178
▁croyai	-11.2178
▁error	-11.2178
▁website	-11.2178
▁volume	-11.2178
▁Few	-11.2178
▁basket	-11.2178
▁humid	-11.2178
noncé	-11.2178
▁burst	-11.2178
▁stress	-11.2178
▁sauter	-11.2178
▁rescue	-11.2178
▁towel	-11.2178
▁197	-11.2178
▁above	-11.2178
▁réveiller	-11.2178
▁promener	-11.2178
▁value	-11.2178
▁escaliers	-11.2179
▁guéri	-11.2179
▁powerful	-11.2179
▁totalement	-11.2179
▁colline	-11.2179
▁souffle	-11.2179
▁ivre	-11.2181
aimais	-11.2181
▁voudrait	-11.2181
▁remonter	-11.2181
▁dérangerait	-11.2183
▁settle	-11.2183
objet	-11.2184
▁pity	-11.2186
▁Fermez	-11.2186
▁garé	-11.2187
▁loupé	-11.2187
▁crise	-11.2187
▁stealing	-11.2189
▁awful	-11.2189
▁deeply	-11.219
▁pareille	-11.2195
▁repaired	-11.2196
▁Min	-11.2209
▁crash	-11.2211
▁pale	-11.2215
▁contest	-11.2216
▁vari	-11.222
▁cow	-11.2228
▁fallen	-11.2229
ote	-11.2235
▁ambition	-11.2238
▁Cat	-11.2243
▁cleaned	-11.2245
▁pie	-11.225
▁state	-11.2257
arly	-11.2257
▁liquide	-11.2263
▁ignored	-11.2264
▁parking	-11.2265
▁dame	-11.2265
▁scientist	-11.2266
▁parie	-11.2273
essayai	-11.2274
▁princess	-11.2275
14	-11.2277
▁Aimerai	-11.2308
▁flower	-11.2314
▁convaincue	-11.2316
▁répar	-11.2323
gged	-11.233
viennent	-11.2388
E	-11.2406
ordinateur	-11.2407
▁impatiente	-11.2416
utiliser	-11.2421
ssent	-11.2422
▁rentrée	-11.2428
▁understanding	-11.244
over	-11.2458
enseign	-11.2459
boy	-11.2466
▁object	-11.2479
▁intelligente	-11.2482
▁U	-11.2508
activ	-11.2514
▁parla	-11.2528
▁bouge	-11.2532
▁plaisante	-11.2533
▁sudden	-11.2542
▁Yesterday	-11.2548
▁adolescent	-11.2548
▁airplane	-11.2548
▁apparence	-11.2548
▁complicated	-11.2548
▁courriel	-11.2548
▁innocence	-11.2548
▁mathématiques	-11.2548
▁survécu	-11.2548
▁Devrai	-11.2548
▁achieve	-11.2548
▁committee	-11.2548
▁mondiale	-11.2548
▁pickpocket	-11.2548
▁respir	-11.2548
▁Write	-11.2548
▁héros	-11.2548
▁skinny	-11.2548
▁twin	-11.2548
▁fence	-11.2548
▁market	-11.2548
▁Grand	-11.2549
▁block	-11.2549
▁classroom	-11.2549
▁scold	-11.2549
▁planned	-11.2549
▁effective	-11.2549
▁chess	-11.2551
▁spot	-11.2551
▁oublier	-11.2551
▁wealth	-11.2551
▁pressure	-11.2551
▁Italy	-11.2551
éché	-11.2552
▁papa	-11.2553
▁futur	-11.2553
▁punished	-11.2555
▁concentrate	-11.2558
▁Parlez	-11.2559
▁puissant	-11.2559
▁chanteur	-11.2559
▁workers	-11.256
▁sink	-11.2561
▁nerve	-11.2563
▁envisager	-11.2567
▁hated	-11.2567
▁Fro	-11.257
▁ambulance	-11.2572
▁relaxed	-11.2573
▁rendrai	-11.2575
▁reposer	-11.2583
▁survived	-11.2586
▁frapper	-11.2592
▁compromis	-11.2593
▁proof	-11.2594
▁succeeded	-11.2596
▁retired	-11.2599
▁pose	-11.2604
objectif	-11.2607
▁époque	-11.2616
▁saisi	-11.2619
▁poulet	-11.2621
▁demandez	-11.263
▁descendre	-11.2639
▁remise	-11.2646
▁utilise	-11.2655
00	-11.2659
rust	-11.2674
▁prévenu	-11.2691
▁lourd	-11.2691
▁shoe	-11.2694
▁entrée	-11.2707
▁médi	-11.2713
▁bienvenu	-11.2736
▁With	-11.274
écrit	-11.2747
▁soul	-11.2748
istic	-11.2751
endance	-11.2758
come	-11.2759
arch	-11.2768
▁roule	-11.2786
▁détermin	-11.2788
essaye	-11.2789
étaient	-11.2794
▁parfaite	-11.2821
cas	-11.2828
▁cheer	-11.2843
▁weigh	-11.2845
▁mord	-11.2857
▁persuade	-11.2885
▁subi	-11.289
▁contribu	-11.2902
▁aimer	-11.2912
▁recover	-11.2917
▁disappoint	-11.2917
▁confus	-11.2918
▁démarr	-11.2918
ajouter	-11.2923
▁Essay	-11.2925
étude	-11.293
▁discover	-11.2933
ambitious	-11.2933
écris	-11.2933
▁Canadian	-11.2933
▁Descend	-11.2933
▁approve	-11.2933
▁audience	-11.2933
▁bargain	-11.2933
▁captain	-11.2933
▁conference	-11.2933
▁equal	-11.2933
▁exchange	-11.2933
▁fantôme	-11.2933
▁middle	-11.2933
▁organized	-11.2933
▁recommandé	-11.2933
▁register	-11.2933
▁thirsty	-11.2933
▁vivons	-11.2933
▁general	-11.2933
▁informé	-11.2933
▁criminel	-11.2933
▁salary	-11.2933
▁météo	-11.2933
▁bullet	-11.2933
▁bound	-11.2933
▁civil	-11.2933
▁fog	-11.2933
▁firm	-11.2933
▁enseigné	-11.2933
:00	-11.2933
▁reviens	-11.2933
▁commettre	-11.2933
▁proverb	-11.2933
▁Day	-11.2933
▁cautio	-11.2933
▁cuis	-11.2933
▁illness	-11.2934
▁lapin	-11.2934
▁safety	-11.2934
▁généralement	-11.2934
▁dozen	-11.2934
▁cancel	-11.2935
▁guests	-11.2935
▁directeur	-11.2935
▁beurre	-11.2936
▁season	-11.2936
▁onze	-11.2936
▁friendship	-11.2937
▁facture	-11.2937
▁pond	-11.2938
▁accent	-11.2939
▁beauté	-11.294
▁jeans	-11.2941
▁salad	-11.2941
▁travaillai	-11.2945
▁reconnais	-11.2945
▁War	-11.2945
▁retrouver	-11.2946
▁partager	-11.2947
▁search	-11.2948
▁dépêcher	-11.2949
▁master	-11.2952
▁Gra	-11.2953
▁pushed	-11.2954
herbe	-11.2958
▁passage	-11.2965
▁pulled	-11.2968
▁sors	-11.2968
▁terminée	-11.298
▁borrowed	-11.298
▁horreur	-11.2981
▁objection	-11.2986
▁maire	-11.2995
assez	-11.3005
attraper	-11.3016
▁badly	-11.3023
adorent	-11.3025
tori	-11.3032
▁allemand	-11.3038
▁tax	-11.3051
▁garer	-11.3051
endant	-11.3122
▁convi	-11.3136
▁beard	-11.314
▁approche	-11.3152
habituer	-11.3153
▁fle	-11.316
room	-11.3177
put	-11.3187
ville	-11.3192
took	-11.3192
J	-11.3193
▁refuser	-11.3208
allons	-11.3225
▁étudiante	-11.3227
occup	-11.3254
▁joli	-11.3258
light	-11.3265
▁regretter	-11.3266
accompagn	-11.3292
▁hug	-11.3294
▁adulte	-11.3298
▁scare	-11.3303
▁préfér	-11.3307
▁except	-11.331
▁déménag	-11.3318
▁Demande	-11.3326
aison	-11.3327
ology	-11.3333
▁amélioré	-11.3333
▁augmentation	-11.3333
▁blâmer	-11.3333
▁brouillard	-11.3333
▁capitaine	-11.3333
▁chandail	-11.3333
▁château	-11.3333
▁commercial	-11.3333
▁crème	-11.3333
▁determine	-11.3333
▁déroulé	-11.3333
▁exciting	-11.3333
▁frappa	-11.3333
▁intersection	-11.3333
▁leçon	-11.3333
▁locuteur	-11.3333
▁merveilleuse	-11.3333
▁piège	-11.3333
▁posséd	-11.3333
▁pouvions	-11.3333
▁quotidiennement	-11.3333
▁religion	-11.3333
▁scène	-11.3333
▁stunned	-11.3333
▁vivait	-11.3333
▁yellow	-11.3333
espérais	-11.3333
▁allongé	-11.3333
▁entraîné	-11.3333
▁field	-11.3333
▁joking	-11.3333
▁maître	-11.3333
▁retiré	-11.3333
▁birth	-11.3333
▁prénom	-11.3333
▁request	-11.3333
▁spread	-11.3333
▁narrow	-11.3333
▁relieved	-11.3333
▁hesitate	-11.3333
incident	-11.3333
▁tentative	-11.3333
▁Pren	-11.3333
▁honor	-11.3333
▁grossier	-11.3333
▁corner	-11.3333
automne	-11.3333
▁ailleurs	-11.3333
▁expliqué	-11.3333
▁léger	-11.3333
▁charmant	-11.3333
▁emprunté	-11.3333
▁parlons	-11.3333
▁castle	-11.3333
▁theater	-11.3334
▁professionnel	-11.3334
▁apart	-11.3335
▁gentillesse	-11.3335
▁recent	-11.3335
▁directement	-11.3335
▁comité	-11.3335
▁pardon	-11.3336
▁kindness	-11.3338
▁fifty	-11.3339
▁ayons	-11.3341
▁Gue	-11.3347
▁réaliser	-11.3351
▁slight	-11.3354
appréci	-11.3354
▁perfectly	-11.3356
▁jumped	-11.3358
▁skill	-11.336
▁atteindre	-11.3362
rank	-11.3364
▁Lui	-11.3364
▁cinquante	-11.3365
▁déjeuné	-11.3365
▁Celui	-11.3368
▁mordu	-11.3368
▁aurions	-11.3369
▁deviner	-11.337
▁entier	-11.337
▁éloigné	-11.3371
▁suggested	-11.3373
▁hall	-11.3379
▁capitale	-11.3388
▁plants	-11.3393
▁plante	-11.34
▁smiled	-11.3404
▁dreaming	-11.341
▁fixed	-11.3415
▁Cesse	-11.3424
▁âgé	-11.3426
▁revi	-11.3429
▁victim	-11.3429
examine	-11.3432
▁addition	-11.3448
▁naturelle	-11.3453
▁gosse	-11.3468
▁arrêtée	-11.3473
▁déranger	-11.3481
▁chasse	-11.3483
▁fournir	-11.3498
nna	-11.3519
cule	-11.3523
▁mistaken	-11.3527
▁choqué	-11.3528
issons	-11.3532
▁hop	-11.3552
▁invite	-11.3566
▁visité	-11.3587
▁téléphoner	-11.3596
▁difficulté	-11.3602
oiseau	-11.3608
B	-11.3608
▁supposée	-11.3613
nybody	-11.3631
venez	-11.3632
▁tenter	-11.3639
ngle	-11.3665
▁Ten	-11.3677
▁reviendra	-11.3685
▁continua	-11.3689
▁pousse	-11.3709
eriez	-11.3715
ommes	-11.3719
▁Écoute	-11.3743
attrap	-11.3743
▁differ	-11.3745
habille	-11.3746
▁gratuit	-11.3748
▁trembl	-11.3748
emprunt	-11.3748
▁threat	-11.3749
ança	-11.3749
étagère	-11.3749
▁Cherche	-11.3749
▁apply	-11.3749
▁budget	-11.3749
▁camarade	-11.3749
▁delicious	-11.3749
▁dislike	-11.3749
▁drogue	-11.3749
▁désespéré	-11.3749
▁détruit	-11.3749
▁elected	-11.3749
▁fausse	-11.3749
▁formulaire	-11.3749
▁meubles	-11.3749
▁participer	-11.3749
▁poupée	-11.3749
▁reservation	-11.3749
▁strength	-11.3749
▁surface	-11.3749
▁uniform	-11.3749
▁échappé	-11.3749
▁énorme	-11.3749
▁false	-11.3749
▁someday	-11.3749
▁valuable	-11.3749
▁soulagé	-11.3749
▁Speak	-11.3749
▁Good	-11.3749
▁bathroom	-11.3749
▁Assey	-11.3749
▁gorge	-11.375
▁requis	-11.375
▁measure	-11.375
attaque	-11.375
▁18	-11.375
▁pilot	-11.375
▁connaissait	-11.375
▁conclusion	-11.375
▁jaune	-11.375
▁begun	-11.375
▁vague	-11.375
▁everywhere	-11.3751
▁quantité	-11.3751
▁beauty	-11.3751
▁hunt	-11.3751
▁violin	-11.3751
▁virer	-11.3751
épais	-11.3752
▁traité	-11.3753
▁vaisselle	-11.3753
▁coffre	-11.3754
▁code	-11.3756
▁destroyed	-11.3756
▁Wat	-11.3757
▁oreilles	-11.3757
▁Hal	-11.3758
▁pénétrer	-11.3762
▁Passez	-11.3763
▁saviez	-11.3764
▁souhaiter	-11.3766
▁jail	-11.3766
▁suffering	-11.3766
▁noyé	-11.377
apprécient	-11.3771
▁ruined	-11.3773
▁battu	-11.3775
▁version	-11.3776
▁clearly	-11.3778
▁crossed	-11.378
▁infirmière	-11.3789
▁treated	-11.3793
▁endormie	-11.3799
▁teaches	-11.38
▁apprend	-11.3805
▁warmer	-11.3805
▁falling	-11.3806
▁débrouillé	-11.3817
▁baign	-11.3819
▁contain	-11.3829
▁bless	-11.3829
▁original	-11.3836
▁restez	-11.3874
abri	-11.3876
▁apologized	-11.3887
▁embarrassé	-11.3903
▁servir	-11.3914
▁données	-11.3919
▁moderne	-11.3923
soci	-11.3933
▁membre	-11.3941
▁collection	-11.3959
▁trace	-11.3963
particulièrement	-11.3967
▁lesson	-11.3973
▁bomb	-11.3982
▁trap	-11.3986
▁modern	-11.4006
utilise	-11.4025
idé	-11.4027
obtenir	-11.4042
neuf	-11.4043
▁Serai	-11.4046
▁bug	-11.4069
▁log	-11.4076
entend	-11.4096
▁raconte	-11.4113
aida	-11.412
ouvrez	-11.4122
▁éta	-11.4122
aujourd	-11.4124
law	-11.4135
négoci	-11.4184
▁Avant	-11.4184
▁October	-11.4184
▁Père	-11.4184
▁accustom	-11.4184
▁challenge	-11.4184
▁citizen	-11.4184
▁douzaine	-11.4184
▁economy	-11.4184
▁eleven	-11.4184
▁engaged	-11.4184
▁gueule	-11.4184
▁nonsense	-11.4184
▁progrès	-11.4184
▁properly	-11.4184
▁rappelez	-11.4184
▁recevoir	-11.4184
▁shape	-11.4184
▁supermarché	-11.4184
▁supermarket	-11.4184
▁surprenant	-11.4184
▁traduire	-11.4184
▁unexpected	-11.4184
▁énervé	-11.4184
estomac	-11.4184
▁brown	-11.4184
▁complex	-11.4184
▁paresseux	-11.4184
▁transport	-11.4184
▁écoulé	-11.4184
▁publié	-11.4184
▁retenu	-11.4184
▁volonté	-11.4184
▁addict	-11.4184
▁sachiez	-11.4184
▁textbook	-11.4184
▁constant	-11.4184
▁grab	-11.4184
élection	-11.4184
▁débat	-11.4184
▁matière	-11.4184
▁réside	-11.4184
▁tongue	-11.4184
▁serré	-11.4185
annonce	-11.4185
sensitive	-11.4185
loyal	-11.4185
▁loan	-11.4185
▁connaissons	-11.4185
▁dating	-11.4185
▁menace	-11.4185
▁reliable	-11.4186
▁violent	-11.4186
▁percent	-11.4186
▁mourut	-11.4186
▁fûmes	-11.4186
▁disposais	-11.4186
▁beside	-11.4188
▁nowhere	-11.4189
▁silly	-11.4189
▁cadeaux	-11.4193
▁amené	-11.4193
▁chanceuse	-11.4194
▁consulter	-11.4195
▁knocked	-11.4198
▁magic	-11.4199
▁cheated	-11.4199
acheta	-11.4199
▁rejoindre	-11.4206
▁intended	-11.4211
▁hanging	-11.4212
▁tromper	-11.4216
▁partage	-11.4216
▁maman	-11.4222
▁mangent	-11.4228
actrice	-11.4237
▁mangez	-11.4238
▁échang	-11.4239
attendait	-11.4243
▁contacter	-11.4247
▁surprising	-11.4264
▁shorter	-11.4279
▁worrying	-11.4283
▁smaller	-11.4302
▁sand	-11.4302
▁plate	-11.4303
▁parked	-11.4304
▁difficulty	-11.4306
▁doux	-11.4318
▁continued	-11.4318
▁climate	-11.4327
▁abandonn	-11.435
écha	-11.4359
▁formé	-11.4361
▁Désolée	-11.4361
▁lourde	-11.4465
▁prévenue	-11.4466
accept	-11.4482
article	-11.4497
C	-11.4499
▁décor	-11.4516
▁concerne	-11.4533
▁disposée	-11.4558
▁éclat	-11.457
nyone	-11.4575
▁Choisis	-11.4576
▁couché	-11.458
uvons	-11.4586
▁effrayée	-11.4597
mener	-11.4607
▁dépense	-11.4622
▁cheat	-11.4623
▁steal	-11.4625
▁jam	-11.4625
▁rêver	-11.4636
▁tempt	-11.4636
dical	-11.4638
▁acquaint	-11.4639
▁Appelez	-11.4639
▁arrogan	-11.4639
▁rembours	-11.4639
▁stretch	-11.4639
▁surveiller	-11.4639
ascenseur	-11.4639
industrie	-11.4639
électricité	-11.4639
▁Américain	-11.4639
▁Hawaii	-11.4639
▁Malheureusement	-11.4639
▁School	-11.4639
▁Unfortunately	-11.4639
▁absorb	-11.4639
▁achevé	-11.4639
▁anxious	-11.4639
▁apparu	-11.4639
▁bougie	-11.4639
▁compliment	-11.4639
▁considère	-11.4639
▁elevator	-11.4639
▁fassions	-11.4639
▁glance	-11.4639
▁illegal	-11.4639
▁increase	-11.4639
▁industry	-11.4639
▁légère	-11.4639
▁mouvement	-11.4639
▁neighborhood	-11.4639
▁okay	-11.4639
▁recommanda	-11.4639
▁remède	-11.4639
▁robot	-11.4639
▁épousé	-11.4639
▁supper	-11.4639
▁definite	-11.4639
▁screw	-11.4639
▁fifteen	-11.4639
▁smiling	-11.4639
▁blonde	-11.4639
▁banc	-11.4639
▁loose	-11.4639
▁eventually	-11.4639
▁insane	-11.4639
▁échoue	-11.4639
▁ramass	-11.4639
▁Smok	-11.4639
▁gym	-11.4639
▁menteuse	-11.4639
▁separate	-11.4639
▁odd	-11.4639
▁atteign	-11.464
▁étendu	-11.464
▁malheureux	-11.464
oublierai	-11.464
▁bitten	-11.464
▁Hand	-11.464
▁appearance	-11.464
ifié	-11.4641
▁montra	-11.4642
▁débrouiller	-11.4644
▁cessé	-11.4645
▁Cessez	-11.4647
▁candy	-11.4648
▁Joue	-11.4649
▁moteur	-11.465
▁hurler	-11.465
▁hauteur	-11.4651
▁Gardez	-11.4653
▁wounded	-11.4654
▁personnelle	-11.4656
▁warning	-11.4658
▁menu	-11.4666
▁Oui	-11.4666
▁vente	-11.4668
▁climbed	-11.4668
▁flying	-11.467
exige	-11.4677
▁adult	-11.4678
▁faisiez	-11.4681
▁Viv	-11.4685
▁dye	-11.4689
▁travaillent	-11.4692
▁deny	-11.4692
▁censée	-11.4693
dication	-11.4696
▁border	-11.4696
▁déçue	-11.4698
▁principal	-11.4701
▁demie	-11.4704
hoisissez	-11.4706
▁stronger	-11.4709
▁tourné	-11.471
▁passait	-11.4711
▁regardez	-11.4714
▁cleaning	-11.4716
▁situe	-11.4719
▁checked	-11.4724
▁lampe	-11.4724
▁confiant	-11.4726
▁successful	-11.4734
▁fromage	-11.4746
▁imagined	-11.475
▁aside	-11.475
▁dors	-11.4753
honnêteté	-11.4773
▁poster	-11.4781
▁poursuivi	-11.4787
inviter	-11.4808
▁commenc	-11.4817
▁gate	-11.482
▁chanté	-11.4826
4	-11.4838
attrape	-11.4851
▁careless	-11.486
▁tape	-11.4868
▁choquée	-11.4886
▁mile	-11.4892
▁mini	-11.4907
▁apparent	-11.4915
▁universe	-11.4921
aucun	-11.4935
acted	-11.4946
▁partiel	-11.4983
aucune	-11.5014
uge	-11.5019
offrir	-11.5032
▁principale	-11.505
hings	-11.5067
▁incredibl	-11.5075
▁wound	-11.5099
▁knock	-11.5099
▁pénétr	-11.5101
▁sweat	-11.5101
▁program	-11.511
▁prétend	-11.5111
▁corrig	-11.5115
horloge	-11.5115
influence	-11.5115
intelligence	-11.5115
évidence	-11.5115
▁Mère	-11.5115
▁affamé	-11.5115
▁chaussettes	-11.5115
▁confortable	-11.5115
▁constamment	-11.5115
▁cottage	-11.5115
▁couramment	-11.5115
▁distingue	-11.5115
▁défaut	-11.5115
▁engagé	-11.5115
▁evidence	-11.5115
▁excitant	-11.5115
▁international	-11.5115
▁luggage	-11.5115
▁password	-11.5115
▁preparing	-11.5115
▁resource	-11.5115
▁récolte	-11.5115
▁scolaire	-11.5115
▁similaire	-11.5115
▁séparé	-11.5115
▁théâtre	-11.5115
▁departure	-11.5115
▁desperate	-11.5115
▁itself	-11.5115
▁knowledge	-11.5115
▁related	-11.5115
▁quartier	-11.5115
▁Étudie	-11.5115
▁eager	-11.5115
▁gardé	-11.5115
▁shame	-11.5115
▁Tomorrow	-11.5115
▁committed	-11.5115
▁désert	-11.5115
▁interdit	-11.5115
▁performance	-11.5115
▁connaissais	-11.5115
▁Tourne	-11.5115
▁travaillons	-11.5115
▁assuré	-11.5115
▁solaire	-11.5116
▁baiser	-11.5116
▁earns	-11.5116
▁barking	-11.5116
▁baked	-11.5116
odeur	-11.5116
▁unusual	-11.5117
▁rassembl	-11.5117
▁accompanie	-11.5117
▁bitter	-11.5117
▁rush	-11.5117
▁Assure	-11.5118
▁souvenez	-11.5118
▁opera	-11.512
▁troisième	-11.512
▁Allume	-11.5121
iché	-11.5121
▁spare	-11.5123
espion	-11.5123
▁Apportez	-11.5123
▁fainted	-11.5124
▁chic	-11.5125
▁Park	-11.5126
▁annoying	-11.5127
▁path	-11.5128
▁teint	-11.5129
▁avisé	-11.5129
▁dépenser	-11.5132
▁canceled	-11.5135
▁crowded	-11.5142
▁peau	-11.5146
▁fill	-11.5148
enfuir	-11.515
▁incredible	-11.5155
ssiez	-11.5155
▁cave	-11.5156
▁rendent	-11.5161
▁plais	-11.5162
▁figur	-11.5163
▁recommande	-11.5169
▁selling	-11.5171
▁skin	-11.5178
▁travaillez	-11.5184
▁hole	-11.5191
▁reviendrai	-11.5191
▁prononcer	-11.5191
▁center	-11.5193
▁urge	-11.5205
▁rater	-11.5209
▁tenez	-11.5216
▁ignoré	-11.5228
eurent	-11.525
▁prêté	-11.5255
▁préoccupe	-11.5259
▁float	-11.5264
aking	-11.5268
▁conduite	-11.5301
▁éclata	-11.5316
▁bombe	-11.5342
▁relie	-11.5352
▁Ki	-11.537
▁200	-11.5379
▁sometime	-11.5397
ssement	-11.5431
▁predict	-11.5447
approcher	-11.5461
addition	-11.5472
dix	-11.5476
▁prince	-11.548
ike	-11.5482
ieurs	-11.5489
expliqu	-11.5534
▁remport	-11.5544
▁emp	-11.5558
appréciai	-11.5574
▁prepare	-11.5584
▁romp	-11.5596
▁Ouvre	-11.5608
▁loup	-11.561
▁actuelle	-11.5612
▁soixante	-11.5615
humour	-11.5615
opportunité	-11.5615
▁Kobe	-11.5615
▁Président	-11.5615
▁banana	-11.5615
▁banane	-11.5615
▁bluff	-11.5615
▁dérobé	-11.5615
▁déroule	-11.5615
▁economic	-11.5615
▁experiment	-11.5615
▁kilos	-11.5615
▁libéré	-11.5615
▁minimum	-11.5615
▁mène	-11.5615
▁méthode	-11.5615
▁naissance	-11.5615
▁participate	-11.5615
▁planète	-11.5615
▁pleuve	-11.5615
▁poignée	-11.5615
▁procurer	-11.5615
▁research	-11.5615
▁ressources	-11.5615
▁retenir	-11.5615
▁régler	-11.5615
▁réservation	-11.5615
▁signification	-11.5615
▁simply	-11.5615
▁struck	-11.5615
▁teenager	-11.5615
▁tradition	-11.5615
▁étasunien	-11.5615
▁baleine	-11.5615
▁cheese	-11.5615
▁loyer	-11.5615
▁millier	-11.5615
▁reserve	-11.5615
▁swear	-11.5615
▁terrifie	-11.5615
▁classmate	-11.5615
ricul	-11.5615
▁flood	-11.5615
▁poker	-11.5615
endormir	-11.5615
▁risqué	-11.5615
▁stories	-11.5615
▁fumée	-11.5615
▁employee	-11.5615
▁sacrifi	-11.5615
▁effectuer	-11.5615
▁purse	-11.5615
▁stopping	-11.5615
▁Listen	-11.5615
▁wave	-11.5615
▁raisonnable	-11.5615
▁shelf	-11.5615
▁average	-11.5615
▁sushi	-11.5615
▁éviter	-11.5615
▁cherché	-11.5615
▁gear	-11.5615
▁space	-11.5615
▁détendu	-11.5615
▁defeat	-11.5615
▁coward	-11.5616
▁degree	-11.5616
▁mouton	-11.5616
existence	-11.5616
▁frontière	-11.5616
▁circu	-11.5616
▁construction	-11.5618
▁edge	-11.5618
▁protection	-11.5618
▁boutique	-11.562
▁dangereuse	-11.562
▁complaints	-11.5622
▁répondit	-11.5622
▁mentionné	-11.5623
▁Voyons	-11.5624
▁embarrassing	-11.5627
▁démissionn	-11.5629
▁disturbed	-11.5629
arents	-11.5632
▁déménager	-11.5633
▁actor	-11.5634
▁acceptable	-11.5636
▁cheaper	-11.564
▁attacked	-11.564
resque	-11.5645
▁faisaient	-11.5647
▁trouverais	-11.5649
▁basse	-11.565
▁helpful	-11.5652
▁juger	-11.5652
accusation	-11.5653
▁qualité	-11.5659
voir	-11.5661
▁income	-11.5661
▁raconté	-11.5676
▁remett	-11.5683
▁touchez	-11.5686
▁ferma	-11.5694
▁cooked	-11.5698
améliorer	-11.5701
▁respecter	-11.5719
▁desire	-11.5723
alarme	-11.5729
▁somme	-11.5738
▁gêné	-11.5741
▁500	-11.5756
jury	-11.5784
venue	-11.5799
▁ramen	-11.5832
▁sembl	-11.5877
cade	-11.5916
▁roll	-11.5923
▁construi	-11.5925
tained	-11.5952
▁poursuiv	-11.5972
allemand	-11.5998
Australie	-11.5999
M	-11.6
▁branche	-11.6006
▁moqué	-11.6023
▁reven	-11.6071
▁alcohol	-11.6074
▁satisf	-11.6119
iving	-11.6122
▁aspir	-11.6128
▁sauve	-11.6129
▁electric	-11.614
▁clou	-11.6141
▁distribu	-11.6141
alphabet	-11.6141
applique	-11.6141
horizon	-11.6141
▁Africa	-11.6141
▁Heureusement	-11.6141
▁bottom	-11.6141
▁chauffeur	-11.6141
▁emplettes	-11.6141
▁fichier	-11.6141
▁flexible	-11.6141
▁generous	-11.6141
▁interfere	-11.6141
▁jogging	-11.6141
▁kilomètres	-11.6141
▁liberté	-11.6141
▁marchandises	-11.6141
▁material	-11.6141
▁muscle	-11.6141
▁mètres	-11.6141
▁naïf	-11.6141
▁produise	-11.6141
▁prévoy	-11.6141
▁relative	-11.6141
▁respond	-11.6141
▁sophisticated	-11.6141
▁véhicule	-11.6141
▁évident	-11.6141
▁delayed	-11.6141
▁fleuve	-11.6141
▁tricot	-11.6141
▁Italian	-11.6141
▁Spain	-11.6141
▁admettre	-11.6141
▁ceinture	-11.6141
▁comprenne	-11.6141
▁maigre	-11.6141
▁champion	-11.6141
▁concours	-11.6141
▁défait	-11.6141
▁transform	-11.6141
▁claim	-11.6141
▁décoll	-11.6141
▁tapis	-11.6141
▁zone	-11.6141
▁centaine	-11.6141
▁temple	-11.6141
▁gliss	-11.6141
autorité	-11.6141
▁nuages	-11.6141
▁actress	-11.6141
▁conserve	-11.6141
▁method	-11.6141
▁pattes	-11.6141
connect	-11.6141
▁Croyez	-11.6141
▁passagers	-11.6142
▁nôtre	-11.6142
▁12	-11.6142
▁tarte	-11.6142
▁mince	-11.6142
▁rattraper	-11.6142
▁authority	-11.6142
▁expi	-11.6143
▁croira	-11.6143
▁commerce	-11.6143
▁India	-11.6143
▁Devine	-11.6143
▁bench	-11.6143
▁Oublie	-11.6143
▁socks	-11.6144
▁croyez	-11.6144
▁semblable	-11.6145
▁beginner	-11.6145
▁nana	-11.6145
▁majeur	-11.6145
▁pardonné	-11.6146
▁pression	-11.6146
▁publicité	-11.6147
▁parlait	-11.6147
▁Price	-11.6147
▁tendit	-11.615
▁bague	-11.615
▁commentaire	-11.615
▁pareil	-11.6153
obtien	-11.6154
attendrai	-11.6155
▁longueur	-11.6156
▁partner	-11.616
▁recovered	-11.6163
▁persuader	-11.6164
▁tableaux	-11.6167
▁discuté	-11.6167
▁ressemblent	-11.617
▁coûté	-11.6171
▁Hé	-11.6178
▁disiez	-11.6185
▁anger	-11.6196
▁holding	-11.6201
▁relu	-11.6203
▁slippe	-11.6208
▁dare	-11.6219
▁retourna	-11.6219
inquiéter	-11.6237
▁tenta	-11.6284
▁auron	-11.629
▁divorcer	-11.6295
▁capte	-11.63
ception	-11.6301
mpire	-11.6317
misunderstanding	-11.6358
▁décid	-11.6403
▁remercie	-11.6411
▁dollar	-11.6457
ipped	-11.6495
▁import	-11.6515
édit	-11.6548
appartient	-11.6554
vingt	-11.6556
signed	-11.6557
▁économis	-11.6628
▁possibl	-11.6632
éprouve	-11.6649
ush	-11.6675
▁disturb	-11.6681
emport	-11.6681
▁concentra	-11.6681
▁grimp	-11.6683
▁consult	-11.6683
▁annoy	-11.6683
▁débarrass	-11.6683
▁hurl	-11.6684
▁effect	-11.6688
intimid	-11.6695
évite	-11.6696
amène	-11.6697
▁permit	-11.6697
Espagne	-11.6697
utomobile	-11.6697
▁Chicago	-11.6697
▁Finalement	-11.6697
▁Lincoln	-11.6697
▁Spanish	-11.6697
▁attaqué	-11.6697
▁chevaux	-11.6697
▁chèque	-11.6697
▁confronté	-11.6697
▁disgusting	-11.6697
▁domicile	-11.6697
▁downtown	-11.6697
▁drogué	-11.6697
▁election	-11.6697
▁focus	-11.6697
▁galerie	-11.6697
▁humor	-11.6697
▁include	-11.6697
▁individu	-11.6697
▁injuste	-11.6697
▁marriage	-11.6697
▁minuit	-11.6697
▁mirror	-11.6697
▁misunderstood	-11.6697
▁modèle	-11.6697
▁mouchoir	-11.6697
▁nettoyé	-11.6697
▁perplexe	-11.6697
▁pitié	-11.6697
▁pollution	-11.6697
▁pourvu	-11.6697
▁propriétaire	-11.6697
▁puzzle	-11.6697
▁pâle	-11.6697
▁période	-11.6697
▁pétrin	-11.6697
▁révéla	-11.6697
▁supérieur	-11.6697
▁thick	-11.6697
▁typhon	-11.6697
▁téléphoné	-11.6697
▁utilisa	-11.6697
▁étonné	-11.6697
Afrique	-11.6697
▁Check	-11.6697
▁announce	-11.6697
▁financial	-11.6697
▁impoli	-11.6697
▁miroir	-11.6697
▁translation	-11.6697
essentiel	-11.6697
▁politics	-11.6697
agissait	-11.6697
océan	-11.6697
▁develop	-11.6697
▁grossière	-11.6697
▁tracasse	-11.6697
▁heurté	-11.6697
▁haircut	-11.6697
▁prenons	-11.6697
▁Buy	-11.6697
▁connait	-11.6697
▁côte	-11.6697
▁notebook	-11.6697
▁Papa	-11.6697
▁pound	-11.6697
▁distrait	-11.6697
▁traduction	-11.6697
▁mix	-11.6697
▁effectué	-11.6697
▁relationship	-11.6697
▁data	-11.6697
▁rarely	-11.6697
▁coiffe	-11.6697
▁demeure	-11.6697
▁farmer	-11.6697
▁emporté	-11.6697
▁quasi	-11.6697
▁secours	-11.6698
▁policy	-11.6698
▁electricity	-11.6698
▁impos	-11.6698
espace	-11.6698
▁sheep	-11.6698
attirer	-11.6698
▁inventé	-11.6698
activité	-11.6698
▁dumb	-11.6698
▁Saint	-11.6699
▁Bonne	-11.6699
▁russe	-11.67
▁flag	-11.67
▁poet	-11.6701
▁revient	-11.6703
▁micro	-11.6705
▁switch	-11.6706
▁Russian	-11.6707
▁soft	-11.6707
▁préférez	-11.6708
▁difficulties	-11.6708
▁Mangez	-11.6708
▁adopted	-11.6709
▁connaissent	-11.671
▁grimper	-11.6711
▁rendiez	-11.6714
▁receive	-11.6716
▁voient	-11.672
▁salon	-11.672
▁taxes	-11.6722
▁self	-11.6723
▁donnez	-11.6742
▁manche	-11.6743
▁dict	-11.6756
▁tourna	-11.6773
ignorance	-11.6781
▁rebel	-11.6786
▁rejeté	-11.6796
▁débutant	-11.6826
assey	-11.6831
tiers	-11.6851
▁command	-11.6854
▁recherch	-11.6857
▁passion	-11.6876
▁quitta	-11.6889
▁déterminé	-11.6911
▁remerci	-11.6947
▁Pay	-11.696
▁éco	-11.7029
habit	-11.7041
▁stamp	-11.7042
▁egg	-11.7045
▁Mais	-11.7076
▁écouta	-11.709
arine	-11.7092
▁flic	-11.7123
aviez	-11.7125
▁sonna	-11.7127
R	-11.7142
important	-11.7144
étage	-11.7146
▁commençai	-11.715
▁origin	-11.7173
▁timid	-11.7173
nything	-11.7176
▁laiss	-11.7176
abandonne	-11.7188
firent	-11.7192
expos	-11.7233
▁prépare	-11.7254
▁tip	-11.7269
▁Arrive	-11.7278
▁sincère	-11.7279
▁pleura	-11.7281
▁psych	-11.7284
nviron	-11.7284
▁fiancé	-11.7285
▁scratch	-11.7285
;	-11.7285
envol	-11.7285
implique	-11.7285
▁Attention	-11.7285
▁Attrape	-11.7285
▁Frankly	-11.7285
▁Shakespeare	-11.7285
▁aperçu	-11.7285
▁applie	-11.7285
▁approprié	-11.7285
▁cardiaque	-11.7285
▁character	-11.7285
▁citoyen	-11.7285
▁composition	-11.7285
▁consacré	-11.7285
▁contraire	-11.7285
▁discount	-11.7285
▁détonation	-11.7285
▁détourn	-11.7285
▁dîné	-11.7285
▁empêché	-11.7285
▁grâce	-11.7285
▁génie	-11.7285
▁malentendu	-11.7285
▁millionnaire	-11.7285
▁mystère	-11.7285
▁pleuvait	-11.7285
▁politician	-11.7285
▁poète	-11.7285
▁promotion	-11.7285
▁pronounce	-11.7285
▁prudence	-11.7285
▁pétrole	-11.7285
▁rabbit	-11.7285
▁renommé	-11.7285
▁rugby	-11.7285
▁récupérer	-11.7285
▁réservé	-11.7285
▁sauva	-11.7285
▁serpent	-11.7285
▁surrounded	-11.7285
▁terribly	-11.7285
▁typhoon	-11.7285
▁vertige	-11.7285
▁économique	-11.7285
▁advertise	-11.7285
▁bruyant	-11.7285
▁divorcé	-11.7285
▁fourchette	-11.7285
▁honey	-11.7285
▁indifférent	-11.7285
▁opération	-11.7285
▁parcourir	-11.7285
▁soulevé	-11.7285
▁sévère	-11.7285
▁underestimate	-11.7285
▁witness	-11.7285
▁Fumer	-11.7285
▁baissé	-11.7285
▁coutume	-11.7285
▁fortunate	-11.7285
▁snake	-11.7285
▁abattu	-11.7285
▁brosse	-11.7285
▁handsome	-11.7285
▁threatened	-11.7285
▁bleeding	-11.7285
▁process	-11.7285
▁panic	-11.7285
▁funeral	-11.7285
▁alike	-11.7285
▁charming	-11.7285
▁ease	-11.7285
▁starved	-11.7285
▁wreck	-11.7285
▁cuire	-11.7285
▁Valentine	-11.7285
▁blush	-11.7285
▁fake	-11.7285
▁musicien	-11.7285
▁poussa	-11.7285
▁customers	-11.7286
▁millionaire	-11.7286
▁clouds	-11.7286
▁désaccord	-11.7286
▁inspiration	-11.7286
▁blackboard	-11.7286
▁exposé	-11.7287
▁deadline	-11.7287
▁euros	-11.7287
▁profondeur	-11.7287
▁Remettez	-11.7287
▁couverture	-11.7288
▁crush	-11.7288
▁musician	-11.7288
▁pleurait	-11.7289
▁pourraient	-11.7289
▁prévenir	-11.729
▁wheel	-11.729
▁assisté	-11.7291
▁pants	-11.7292
▁veiller	-11.7292
▁replace	-11.7293
▁Enfin	-11.7293
▁plaisanter	-11.7294
▁abuse	-11.7295
▁embarrass	-11.7295
▁cover	-11.7295
▁bedtime	-11.7295
▁fiable	-11.7296
▁patronne	-11.7296
▁conviendra	-11.7297
▁disappeared	-11.7297
▁battle	-11.7297
▁rendra	-11.7299
▁belt	-11.7304
▁useless	-11.7306
▁séjourner	-11.7313
▁attract	-11.7315
▁disais	-11.7317
▁comporter	-11.7317
▁suivrai	-11.7317
▁packed	-11.7319
▁confondu	-11.7323
encre	-11.7328
▁louder	-11.7329
▁install	-11.7334
corn	-11.7352
▁tira	-11.738
▁serre	-11.7381
▁paniqu	-11.7395
▁tendu	-11.7411
▁300	-11.7418
onnèrent	-11.7452
▁favori	-11.7473
▁track	-11.7495
▁Verr	-11.7519
▁indig	-11.7554
agisse	-11.7566
awa	-11.7585
ithout	-11.759
tiendrai	-11.76
mirent	-11.76
doré	-11.7634
Europe	-11.7768
inconvénient	-11.7769
intéressant	-11.7769
équ	-11.7794
though	-11.7818
▁prévoi	-11.7819
▁Whe	-11.7844
arrivai	-11.7874
volant	-11.7876
▁admis	-11.7887
▁déjeune	-11.7891
▁rise	-11.7895
▁comfort	-11.7907
convenient	-11.791
ennuyer	-11.791
excursion	-11.791
interrompre	-11.791
obscurité	-11.791
înmes	-11.791
▁blanket	-11.791
▁brièvement	-11.791
▁bucket	-11.791
▁compétition	-11.791
▁conscious	-11.791
▁correspond	-11.791
▁cuillère	-11.791
▁délicat	-11.791
▁délicieuse	-11.791
▁efficient	-11.791
▁engagement	-11.791
▁fauché	-11.791
▁festival	-11.791
▁genius	-11.791
▁gère	-11.791
▁handkerchief	-11.791
▁informed	-11.791
▁loaded	-11.791
▁marathon	-11.791
▁midnight	-11.791
▁mouillé	-11.791
▁négligen	-11.791
▁persuadé	-11.791
▁plomb	-11.791
▁positive	-11.791
▁probabilité	-11.791
▁published	-11.791
▁recruté	-11.791
▁regular	-11.791
▁rejected	-11.791
▁ridicule	-11.791
▁ridiculous	-11.791
▁réflexion	-11.791
▁rêvé	-11.791
▁serrure	-11.791
▁significant	-11.791
▁soupçon	-11.791
▁square	-11.791
▁throat	-11.791
▁Écris	-11.791
▁Étasunien	-11.791
▁électrique	-11.791
▁émotions	-11.791
▁étroit	-11.791
▁horrifi	-11.791
▁métro	-11.791
▁navigu	-11.791
▁évanoui	-11.791
▁critical	-11.791
▁menacé	-11.791
▁poussé	-11.791
▁venait	-11.791
▁current	-11.791
▁effronté	-11.791
▁factory	-11.791
▁fonctionné	-11.791
▁political	-11.791
▁scandal	-11.791
▁ocean	-11.791
▁coopérati	-11.791
▁renversé	-11.791
▁skate	-11.791
approuve	-11.791
▁consomme	-11.791
▁Parlons	-11.791
▁entrance	-11.791
▁contient	-11.791
▁bourré	-11.791
▁récente	-11.791
▁sucré	-11.791
▁apology	-11.791
▁pianist	-11.791
▁eighteen	-11.791
▁conditionné	-11.791
▁région	-11.791
▁iP	-11.791
▁fauteuil	-11.791
▁Retire	-11.791
▁coca	-11.791
▁malheureuse	-11.791
▁connection	-11.791
▁spotted	-11.791
▁terms	-11.791
▁miel	-11.791
▁batterie	-11.791
▁outrage	-11.791
▁amaze	-11.791
▁commission	-11.791
▁spoon	-11.791
▁skirt	-11.7911
▁11	-11.7911
▁applaudi	-11.7911
▁délai	-11.7911
▁lancé	-11.7911
▁access	-11.7911
ordonna	-11.7911
italien	-11.7911
▁hello	-11.7911
quérir	-11.7911
▁freak	-11.7911
▁professional	-11.7912
▁compete	-11.7912
munition	-11.7913
▁balance	-11.7913
▁flatter	-11.7914
▁voisinage	-11.7914
▁cuit	-11.7914
▁pray	-11.7915
▁études	-11.7915
▁topic	-11.7916
▁peel	-11.7917
▁exprès	-11.7917
▁voilà	-11.7917
▁parlais	-11.7917
▁Seul	-11.7918
▁trouvais	-11.7918
▁Ouvrez	-11.7918
▁personnellement	-11.7919
▁moyenne	-11.7921
▁doué	-11.7922
▁labor	-11.7923
▁promit	-11.7924
▁aimerait	-11.7928
▁personally	-11.7929
▁ballon	-11.7931
attente	-11.7942
▁pride	-11.7942
▁Soon	-11.7944
▁détien	-11.7945
▁consacrer	-11.7951
▁Use	-11.7962
achèterai	-11.7965
▁rentra	-11.7972
chauss	-11.7999
▁découvre	-11.8024
▁nomme	-11.8036
▁suppli	-11.8043
▁compare	-11.809
▁marg	-11.8094
▁refus	-11.8101
nails	-11.8105
▁mark	-11.8122
apprends	-11.8132
▁branch	-11.8142
lung	-11.8149
▁guitarist	-11.8154
▁fondu	-11.8157
ubli	-11.8158
brain	-11.8168
▁latin	-11.8186
▁pourrai	-11.8225
▁Pose	-11.8259
genc	-11.8285
▁suiv	-11.8311
col	-11.8317
œufs	-11.8409
▁éprouv	-11.8433
G	-11.8435
opinion	-11.8436
▁poule	-11.8445
▁frappe	-11.8496
▁racont	-11.8502
obéir	-11.8507
▁confond	-11.8533
▁arrest	-11.8534
▁shock	-11.8561
▁entière	-11.8572
ollow	-11.8575
njoy	-11.8576
▁Contact	-11.8577
▁bruise	-11.8577
▁circon	-11.8577
▁mémoris	-11.8577
écrivit	-11.8577
électronique	-11.8577
▁Drink	-11.8577
▁General	-11.8577
▁Soudain	-11.8577
▁ambitieux	-11.8577
▁appropriate	-11.8577
▁cheek	-11.8577
▁clôture	-11.8577
▁coincidence	-11.8577
▁communication	-11.8577
▁coïncidence	-11.8577
▁criticiz	-11.8577
▁cuisinier	-11.8577
▁cuisinière	-11.8577
▁curtain	-11.8577
▁dissimul	-11.8577
▁délicieux	-11.8577
▁exigences	-11.8577
▁fantastic	-11.8577
▁fraîche	-11.8577
▁frustrat	-11.8577
▁gérant	-11.8577
▁hamburger	-11.8577
▁hammer	-11.8577
▁impôts	-11.8577
▁instinct	-11.8577
▁maternelle	-11.8577
▁mobile	-11.8577
▁mosquito	-11.8577
▁philosoph	-11.8577
▁politicien	-11.8577
▁presence	-11.8577
▁professor	-11.8577
▁propriété	-11.8577
▁ralenti	-11.8577
▁retrouvé	-11.8577
▁secrète	-11.8577
▁siècle	-11.8577
▁soigneusement	-11.8577
▁soûl	-11.8577
▁starving	-11.8577
▁sèche	-11.8577
▁target	-11.8577
▁terrifié	-11.8577
▁traduit	-11.8577
▁whale	-11.8577
▁yourselves	-11.8577
▁Écrivez	-11.8577
▁Éteins	-11.8577
▁écrasé	-11.8577
▁époux	-11.8577
▁baggage	-11.8577
▁défunt	-11.8577
▁dégoûtant	-11.8577
▁garanti	-11.8577
▁natale	-11.8577
▁nettoya	-11.8577
▁personnalité	-11.8577
▁symbol	-11.8577
▁Ignore	-11.8577
▁Think	-11.8577
▁buried	-11.8577
▁Dix	-11.8577
▁partenaire	-11.8577
▁quarante	-11.8577
▁preniez	-11.8577
▁shave	-11.8577
▁century	-11.8577
▁tunnel	-11.8577
▁nearby	-11.8577
▁buvez	-11.8577
▁granted	-11.8577
▁attiré	-11.8577
▁boots	-11.8577
▁commit	-11.8577
impré	-11.8577
▁Coupe	-11.8577
opéra	-11.8577
▁treize	-11.8577
▁decline	-11.8577
▁invented	-11.8577
▁permitted	-11.8577
▁dedicated	-11.8577
▁paquet	-11.8577
▁domaine	-11.8577
▁wild	-11.8577
▁Baisse	-11.8577
▁subway	-11.8577
▁nerfs	-11.8577
▁Find	-11.8577
▁détestai	-11.8577
▁Change	-11.8577
▁chew	-11.8577
▁taquin	-11.8577
▁franc	-11.8577
▁goutte	-11.8578
▁sympathique	-11.8578
▁statue	-11.8578
▁gratuitement	-11.8578
▁Respect	-11.8579
▁soudainement	-11.8579
▁brand	-11.8579
▁score	-11.8579
▁rougi	-11.8579
▁choc	-11.8579
▁briefly	-11.8579
▁embauché	-11.8579
▁mud	-11.8579
▁mathematics	-11.858
▁investigation	-11.858
▁resist	-11.858
▁chanteuse	-11.8581
▁colon	-11.8581
▁sonné	-11.8582
▁cough	-11.8582
▁opposé	-11.8583
▁jupe	-11.8583
▁Arrivez	-11.8584
▁meters	-11.8585
▁happier	-11.8587
▁Écoutez	-11.8587
▁Demandez	-11.8588
▁bondé	-11.8593
▁motion	-11.86
▁Bois	-11.8603
prenait	-11.8606
▁niveau	-11.8609
hree	-11.8626
▁contribute	-11.8631
▁ignorant	-11.8635
origine	-11.864
pathetic	-11.8658
▁recul	-11.8658
▁Hi	-11.8668
aughter	-11.868
▁adopté	-11.8695
aboli	-11.8696
▁cheerful	-11.874
▁offri	-11.8749
duction	-11.8762
abandonner	-11.8799
▁grouill	-11.8801
▁architect	-11.8837
▁saura	-11.8945
▁suppos	-11.8976
tiens	-11.9005
ified	-11.9036
▁voyag	-11.9047
▁gagn	-11.9115
where	-11.9131
V	-11.9147
judge	-11.9149
cinq	-11.915
assister	-11.915
Will	-11.9151
W	-11.9151
étiez	-11.9155
▁enfui	-11.9168
enregistr	-11.9179
▁lamp	-11.9182
▁séjour	-11.9193
▁rejet	-11.9195
▁exig	-11.9231
enseignant	-11.9238
▁confectionn	-11.9244
▁styl	-11.9248
▁graduate	-11.926
▁build	-11.9278
▁répét	-11.9278
▁painful	-11.9283
▁attentive	-11.9285
épuis	-11.9288
▁interview	-11.9291
▁pèse	-11.9291
▁réchauff	-11.9291
X	-11.9291
avéra	-11.9291
envoya	-11.9291
identité	-11.9291
échappa	-11.9291
épousa	-11.9291
▁Actually	-11.9291
▁Monsieur	-11.9291
▁Summer	-11.9291
▁Surveille	-11.9291
▁USA	-11.9291
▁Yokohama	-11.9291
▁acknowledge	-11.9291
▁advenu	-11.9291
▁arrivèrent	-11.9291
▁attentif	-11.9291
▁bonjour	-11.9291
▁cerisier	-11.9291
▁circle	-11.9291
▁clarifier	-11.9291
▁clothing	-11.9291
▁compagnon	-11.9291
▁décès	-11.9291
▁désastre	-11.9291
▁elephant	-11.9291
▁escort	-11.9291
▁garbage	-11.9291
▁harvest	-11.9291
▁inconnu	-11.9291
▁littérature	-11.9291
▁monsieur	-11.9291
▁naïve	-11.9291
▁outdoors	-11.9291
▁papillon	-11.9291
▁physique	-11.9291
▁receipt	-11.9291
▁refrigerator	-11.9291
▁religious	-11.9291
▁réfrigérateur	-11.9291
▁secrétaire	-11.9291
▁spider	-11.9291
▁sunscreen	-11.9291
▁survivre	-11.9291
▁tattoo	-11.9291
▁thumb	-11.9291
▁téléviseur	-11.9291
▁témoin	-11.9291
▁uncomfortable	-11.9291
▁unconscious	-11.9291
▁utilité	-11.9291
▁égoïste	-11.9291
▁évité	-11.9291
▁boucle	-11.9291
▁chiffre	-11.9291
▁croient	-11.9291
▁distracted	-11.9291
▁elder	-11.9291
▁folded	-11.9291
▁tiroir	-11.9291
▁furieux	-11.9291
▁gamin	-11.9291
▁incorrect	-11.9291
▁requier	-11.9291
▁bataille	-11.9291
▁staff	-11.9291
▁vitamin	-11.9291
▁recall	-11.9291
▁vocation	-11.9291
▁deviens	-11.9291
▁obsess	-11.9291
▁slice	-11.9291
viendrez	-11.9291
▁marteau	-11.9291
▁parliez	-11.9291
▁valable	-11.9291
▁rubb	-11.9291
▁assiette	-11.9291
▁invention	-11.9291
▁proceed	-11.9291
orld	-11.9291
▁dumped	-11.9291
▁194	-11.9291
▁pitch	-11.9291
▁déchir	-11.9291
▁manners	-11.9291
▁clue	-11.9292
▁discre	-11.9292
▁chute	-11.9292
▁aimable	-11.9292
▁halfway	-11.9292
▁operation	-11.9292
▁reduce	-11.9292
▁disposition	-11.9292
▁silver	-11.9292
▁psychic	-11.9292
▁gratte	-11.9292
▁foudre	-11.9292
▁genoux	-11.9293
▁tentation	-11.9293
▁introduit	-11.9293
▁unfair	-11.9293
▁mercy	-11.9293
▁piqué	-11.9294
▁joyeux	-11.9294
▁accompagné	-11.9294
▁assistant	-11.9294
▁candidature	-11.9294
▁spécialité	-11.9295
▁task	-11.9295
▁valid	-11.9295
▁diriez	-11.9295
▁péril	-11.9295
accueil	-11.9295
▁rencontriez	-11.9296
▁prétendu	-11.9297
▁ému	-11.9297
▁flies	-11.9298
▁sincèrement	-11.9298
▁Latin	-11.9299
▁marque	-11.9299
▁mule	-11.9301
▁acteur	-11.9301
▁grain	-11.9301
▁troupe	-11.9301
▁Add	-11.9301
humanité	-11.9304
▁basic	-11.9306
étang	-11.9306
▁Assi	-11.9309
voted	-11.9309
▁empli	-11.9314
▁rétabli	-11.9314
▁debate	-11.9318
▁paierai	-11.9327
▁soutenu	-11.9345
épi	-11.9346
▁create	-11.9353
▁dépos	-11.9356
▁obéi	-11.9359
▁descendu	-11.9385
▁expliqua	-11.9387
▁deviendra	-11.9393
▁comprendrai	-11.94
entretien	-11.9402
▁dinosaur	-11.941
▁adopt	-11.9427
▁vision	-11.9463
▁cooperati	-11.9467
posez	-11.947
▁exprim	-11.9471
▁Sign	-11.9567
pulse	-11.964
appelait	-11.9644
▁design	-11.9669
▁collectionne	-11.968
cession	-11.9701
embarrassant	-11.9726
▁193	-11.9796
▁timbre	-11.9817
ssip	-11.9863
appuyer	-11.9871
▁21	-11.9872
érité	-11.9897
étrange	-11.9909
prirent	-11.9917
époque	-11.9917
assistance	-11.9918
having	-11.9919
looking	-11.992
What	-11.992
point	-11.992
year	-11.9921
fondée	-11.9934
romise	-11.998
▁termine	-12.0014
▁rejoindr	-12.0021
▁201	-12.0037
▁disappear	-12.0044
▁punish	-12.0046
orrect	-12.0052
▁fonction	-12.0055
▁joy	-12.0058
ceived	-12.0058
▁genou	-12.0058
Valentin	-12.0059
accoutum	-12.006
alimentation	-12.006
appétit	-12.006
embête	-12.006
imbécile	-12.006
intrigue	-12.006
ircumstances	-12.006
énigme	-12.006
équipage	-12.006
▁British	-12.006
▁Canadien	-12.006
▁Cookie	-12.006
▁Facebook	-12.006
▁Remets	-12.006
▁Suddenly	-12.006
▁Suivez	-12.006
▁Utilise	-12.006
▁abasourdi	-12.006
▁accroché	-12.006
▁araignée	-12.006
▁arrivâmes	-12.006
▁caméra	-12.006
▁condamné	-12.006
▁contraint	-12.006
▁curieuse	-12.006
▁curiosité	-12.006
▁diamant	-12.006
▁douloureux	-12.006
▁emmené	-12.006
▁envelope	-12.006
▁essential	-12.006
▁evil	-12.006
▁expenses	-12.006
▁families	-12.006
▁fascinating	-12.006
▁fatigue	-12.006
▁fréquemment	-12.006
▁inconscient	-12.006
▁increasing	-12.006
▁insecure	-12.006
▁lèvres	-12.006
▁maigrichon	-12.006
▁memorize	-12.006
▁métier	-12.006
▁ouvriers	-12.006
▁paresseuse	-12.006
▁pelouse	-12.006
▁pepper	-12.006
▁pistolet	-12.006
▁plafond	-12.006
▁plastique	-12.006
▁poussière	-12.006
▁principe	-12.006
▁publique	-12.006
▁racket	-12.006
▁recouvert	-12.006
▁remarquable	-12.006
▁rythme	-12.006
▁scissors	-12.006
▁siffler	-12.006
▁strike	-12.006
▁supply	-12.006
▁tatouage	-12.006
▁trouvèrent	-12.006
▁typewriter	-12.006
▁téléphonique	-12.006
▁Korea	-12.006
▁accueilli	-12.006
▁astonish	-12.006
▁ciseaux	-12.006
▁enemies	-12.006
▁literature	-12.006
▁médicale	-12.006
▁smooth	-12.006
▁stubborn	-12.006
▁Apple	-12.006
▁froze	-12.006
▁panier	-12.006
▁split	-12.006
▁hugged	-12.006
▁préoccupé	-12.006
▁cellphone	-12.006
▁disaster	-12.006
▁divide	-12.006
exhort	-12.006
▁allumette	-12.006
▁entouré	-12.006
▁obligation	-12.006
▁shout	-12.006
▁chauve	-12.006
▁surgery	-12.006
▁miserable	-12.006
▁length	-12.006
▁reverrai	-12.006
▁mystery	-12.006
▁valait	-12.006
▁negotiate	-12.006
▁partagé	-12.006
▁temper	-12.006
▁connected	-12.006
▁idéal	-12.006
qualified	-12.006
▁frott	-12.006
▁crisis	-12.0061
▁citron	-12.0061
▁vieilliss	-12.0061
▁crawl	-12.0061
▁bribe	-12.0061
▁conducteur	-12.0061
▁Talk	-12.0061
▁déclin	-12.0062
▁éléphants	-12.0062
▁flow	-12.0062
▁lancer	-12.0062
▁réception	-12.0062
▁soulever	-12.0062
▁foiré	-12.0062
▁plaire	-12.0063
▁personality	-12.0063
▁couler	-12.0063
▁rising	-12.0063
▁temptation	-12.0064
▁excusé	-12.0064
▁tribu	-12.0064
▁secretary	-12.0064
▁brun	-12.0065
▁provenan	-12.0065
▁virent	-12.0065
▁praise	-12.0065
inclin	-12.0066
▁porc	-12.0066
▁loué	-12.0068
▁gants	-12.0068
▁coach	-12.0068
▁wage	-12.0069
▁cerf	-12.007
▁Fish	-12.007
oids	-12.0071
▁diffère	-12.0073
▁dragg	-12.0075
énerve	-12.0076
▁trade	-12.0078
▁boue	-12.0078
▁chop	-12.0082
bourg	-12.0087
▁wide	-12.0087
▁bœuf	-12.0091
▁aboie	-12.0093
▁Remo	-12.0099
▁raccroch	-12.0113
▁expose	-12.013
économise	-12.0157
envisage	-12.0167
▁entertain	-12.0201
▁explor	-12.0265
▁augmente	-12.0358
issue	-12.0359
▁administr	-12.0361
offre	-12.0385
▁Regard	-12.0458
▁particulière	-12.0464
tendîmes	-12.0472
lick	-12.0531
▁soldat	-12.0653
expression	-12.0679
▁adapt	-12.0741
▁inquiét	-12.0744
F	-12.075
ambition	-12.0751
ennuis	-12.0752
quatre	-12.0753
▁abandon	-12.0839
pring	-12.0875
▁faint	-12.0878
embauch	-12.089
▁conduct	-12.0892
ccès	-12.0893
▁occur	-12.0893
observa	-12.0893
▁Remplis	-12.0893
▁disobey	-12.0893
▁Apprend	-12.0893
▁Corrige	-12.0893
▁affirm	-12.0893
▁approuvé	-12.0893
▁bavard	-12.0893
▁explode	-12.0893
▁swallow	-12.0893
bracelet	-12.0893
exécuter	-12.0893
imprudent	-12.0893
étonnant	-12.0893
évoque	-12.0893
▁Apprécie	-12.0893
▁Chopin	-12.0893
▁Greek	-12.0893
▁Hilton	-12.0893
▁Nagoya	-12.0893
▁Picasso	-12.0893
▁President	-12.0893
▁Répond	-12.0893
▁Washington	-12.0893
▁Windows	-12.0893
▁accurate	-12.0893
▁alimentaire	-12.0893
▁appetite	-12.0893
▁canadien	-12.0893
▁carottes	-12.0893
▁celebrating	-12.0893
▁chirurgie	-12.0893
▁compétence	-12.0893
▁consequence	-12.0893
▁câble	-12.0893
▁discouraged	-12.0893
▁drowning	-12.0893
▁dégâts	-12.0893
▁désorienté	-12.0893
▁embêtant	-12.0893
▁enlevé	-12.0893
▁ennuyé	-12.0893
▁excès	-12.0893
▁fabulous	-12.0893
▁fainéant	-12.0893
▁fantastique	-12.0893
▁flashlight	-12.0893
▁formidable	-12.0893
▁frequently	-12.0893
▁furieuse	-12.0893
▁gambling	-12.0893
▁glacée	-12.0893
▁gloves	-12.0893
▁greedy	-12.0893
▁hypothèse	-12.0893
▁indépendant	-12.0893
▁inscrit	-12.0893
▁interrompu	-12.0893
▁knitting	-12.0893
▁librairie	-12.0893
▁motorcycle	-12.0893
▁mélange	-12.0893
▁nucléaire	-12.0893
▁optimistic	-12.0893
▁ordonné	-12.0893
▁pagaille	-12.0893
▁procéder	-12.0893
▁produira	-12.0893
▁précédent	-12.0893
▁prévenant	-12.0893
▁raccourci	-12.0893
▁réputation	-12.0893
▁révélé	-12.0893
▁septembre	-12.0893
▁solitaire	-12.0893
▁souvient	-12.0893
▁sunglasses	-12.0893
▁surrender	-12.0893
▁terror	-12.0893
▁thorough	-12.0893
▁traître	-12.0893
▁vigilan	-12.0893
▁whisper	-12.0893
▁écrive	-12.0893
▁équitable	-12.0893
▁adieux	-12.0893
▁automatique	-12.0893
▁constat	-12.0893
▁creep	-12.0893
▁douze	-12.0893
▁décevoir	-12.0893
▁financière	-12.0893
▁insensé	-12.0893
▁réglé	-12.0893
▁talentueux	-12.0893
▁First	-12.0893
▁drapeau	-12.0893
▁fridge	-12.0893
▁zero	-12.0893
▁Hotel	-12.0893
▁Pick	-12.0893
▁barbecue	-12.0893
▁gently	-12.0893
tacle	-12.0893
▁microphone	-12.0893
▁sucreries	-12.0893
organisation	-12.0893
▁Foo	-12.0893
▁chores	-12.0893
▁earring	-12.0893
▁interrog	-12.0893
▁roommate	-12.0894
inquiétude	-12.0894
▁sanglot	-12.0894
▁Bird	-12.0894
▁dossier	-12.0894
▁grondé	-12.0894
▁impressionnant	-12.0894
▁parcouru	-12.0894
▁Contente	-12.0894
▁sunset	-12.0894
▁zéro	-12.0894
▁Verrouille	-12.0894
▁satisfaire	-12.0894
▁Clean	-12.0894
▁minor	-12.0894
▁croissance	-12.0894
▁selfish	-12.0894
▁noisy	-12.0894
▁impressive	-12.0894
▁cogn	-12.0894
▁Nara	-12.0894
▁carpet	-12.0894
▁franchement	-12.0895
▁overreact	-12.0895
évolution	-12.0895
Histoire	-12.0895
▁Abou	-12.0895
▁fatter	-12.0895
▁80	-12.0896
▁amends	-12.0896
prenais	-12.0896
▁pills	-12.0897
▁tolerate	-12.0897
▁mouse	-12.0897
▁courageux	-12.0897
▁estimé	-12.0897
allonge	-12.0898
aidiez	-12.0903
▁Pardonne	-12.0909
▁Promet	-12.0926
▁souviendr	-12.093
▁Star	-12.0931
inattendu	-12.0939
▁Fini	-12.0944
clear	-12.0977
nstead	-12.0992
insulte	-12.1072
▁hérit	-12.1089
▁tuyau	-12.1284
▁tissu	-12.1302
ormalement	-12.1314
▁réagi	-12.1342
▁appuy	-12.138
▁reli	-12.1443
attle	-12.1447
▁tiendra	-12.1493
▁intéress	-12.1557
▁feuille	-12.1561
améliore	-12.1645
monnaie	-12.166
exception	-12.166
appareil	-12.1662
known	-12.1663
averti	-12.1673
▁livr	-12.1692
gramme	-12.1696
entral	-12.1718
▁rapid	-12.1727
▁souten	-12.1736
▁habile	-12.1761
▁destroy	-12.1787
▁necessar	-12.1787
▁happi	-12.1788
housand	-12.1793
omprenez	-12.1794
▁absolute	-12.1796
▁construct	-12.1798
▁immédiat	-12.1801
▁Raconte	-12.1802
▁Travaille	-12.1802
▁Viendr	-12.1802
▁anticipate	-12.1802
▁félicit	-12.1802
▁guarantee	-12.1802
▁témoign	-12.1802
▁Éteignez	-12.1802
arnaque	-12.1802
arrivons	-12.1802
atmosphère	-12.1802
convenience	-12.1802
hearted	-12.1802
immigrants	-12.1802
interromps	-12.1802
revious	-12.1802
▁April	-12.1802
▁Beatles	-12.1802
▁Brazil	-12.1802
▁Fortunately	-12.1802
▁Grimpe	-12.1802
▁Hokkaido	-12.1802
▁Someday	-12.1802
▁Street	-12.1802
▁Switzerland	-12.1802
▁Thursday	-12.1802
▁Vérifi	-12.1802
▁absurde	-12.1802
▁apparition	-12.1802
▁avril	-12.1802
▁bagnole	-12.1802
▁bankrupt	-12.1802
▁bloom	-12.1802
▁blossom	-12.1802
▁burglar	-12.1802
▁celebrate	-12.1802
▁collège	-12.1802
▁competition	-12.1802
▁consciencieu	-12.1802
▁constitue	-12.1802
▁controvers	-12.1802
▁crevé	-12.1802
▁diamond	-12.1802
▁diplôme	-12.1802
▁dramati	-12.1802
▁détruis	-12.1802
▁embouteillage	-12.1802
▁emotions	-12.1802
▁encouragé	-12.1802
▁envious	-12.1802
▁espèce	-12.1802
▁fascinant	-12.1802
▁forecast	-12.1802
▁gardien	-12.1802
▁hilarious	-12.1802
▁humiliated	-12.1802
▁inévitable	-12.1802
▁karat	-12.1802
▁location	-12.1802
▁memories	-12.1802
▁neigé	-12.1802
▁onéreux	-12.1802
▁pendule	-12.1802
▁phares	-12.1802
▁placard	-12.1802
▁plaça	-12.1802
▁pouvaient	-12.1802
▁promoted	-12.1802
▁rafraîchi	-12.1802
▁rassasié	-12.1802
▁reconnaître	-12.1802
▁relâch	-12.1802
▁remets	-12.1802
▁renvoyé	-12.1802
▁reproduis	-12.1802
▁subscribe	-12.1802
▁survivra	-12.1802
▁suspendu	-12.1802
▁talentueuse	-12.1802
▁toubib	-12.1802
▁veinard	-12.1802
▁vivid	-12.1802
▁volontiers	-12.1802
▁whisky	-12.1802
▁whistle	-12.1802
▁Éprouve	-12.1802
▁Dinner	-12.1802
▁backward	-12.1802
▁broad	-12.1802
▁cliff	-12.1802
▁department	-12.1802
▁furious	-12.1802
▁grenouille	-12.1802
▁handicap	-12.1802
▁procuré	-12.1802
▁précieux	-12.1802
▁raquette	-12.1802
▁represent	-12.1802
▁venais	-12.1802
▁voulions	-12.1802
▁fox	-12.1802
▁ordinar	-12.1802
▁reflect	-12.1802
▁sarcasti	-12.1802
percevoir	-12.1803
▁Clearly	-12.1803
▁accomplish	-12.1803
▁atterri	-12.1803
▁suicidé	-12.1803
▁béni	-12.1803
▁changing	-12.1803
▁fuite	-12.1803
▁trousers	-12.1803
▁plonge	-12.1803
▁venons	-12.1803
▁plastic	-12.1803
▁undress	-12.1803
autoriser	-12.1803
▁bookstore	-12.1803
▁freedom	-12.1803
▁séisme	-12.1803
▁Judg	-12.1803
▁cloudy	-12.1803
▁overseas	-12.1803
▁ronde	-12.1803
▁ressor	-12.1803
▁égaré	-12.1803
▁joie	-12.1803
▁massage	-12.1803
▁melted	-12.1803
▁renard	-12.1803
▁journey	-12.1803
▁virus	-12.1803
▁ongles	-12.1803
▁jeudi	-12.1803
▁hidden	-12.1803
▁monkey	-12.1803
▁Salut	-12.1803
.000	-12.1803
▁Play	-12.1803
▁angel	-12.1803
▁sunny	-12.1803
▁déguis	-12.1803
▁swam	-12.1803
▁irré	-12.1803
▁modeste	-12.1803
▁Walk	-12.1803
▁punch	-12.1803
▁connaissiez	-12.1803
▁Green	-12.1804
▁examined	-12.1804
▁sailor	-12.1804
▁sword	-12.1804
▁arrow	-12.1804
▁trouvaient	-12.1804
▁visitors	-12.1804
▁pisté	-12.1804
▁arranged	-12.1804
▁compense	-12.1805
▁visiteurs	-12.1805
évier	-12.1805
dicate	-12.1805
▁Station	-12.1805
▁sermon	-12.1805
▁frigo	-12.1805
▁titre	-12.1806
▁wings	-12.1806
serted	-12.1808
▁amende	-12.1811
effectu	-12.1815
▁serra	-12.1817
corp	-12.1819
▁ajout	-12.1826
▁gravi	-12.1831
État	-12.1846
▁épel	-12.1858
organise	-12.1878
enfuit	-12.1894
Union	-12.1919
existe	-12.209
appuya	-12.2128
▁Aussi	-12.2137
▁ressembl	-12.219
worthy	-12.2287
▁fam	-12.2372
augmenter	-12.2423
▁mug	-12.2428
productif	-12.247
tracked	-12.253
▁œuf	-12.2561
▁envisag	-12.2613
application	-12.266
égard	-12.2661
idiot	-12.2662
May	-12.2662
oblig	-12.2675
▁démission	-12.2744
échappe	-12.2759
assembl	-12.2762
▁frighten	-12.2787
onnaît	-12.2794
omprends	-12.2794
▁immediate	-12.2796
excellen	-12.2798
▁malheur	-12.2799
▁priva	-12.2799
ranchement	-12.2801
▁Prête	-12.2802
altitude	-12.2802
appartiens	-12.2802
empêcha	-12.2802
hydrog	-12.2802
temporary	-12.2802
épreuve	-12.2802
▁Ajoute	-12.2802
▁Ankara	-12.2802
▁Buvez	-12.2802
▁Eiffel	-12.2802
▁Hiroshi	-12.2802
▁January	-12.2802
▁Narita	-12.2802
▁Reviens	-12.2802
▁Réveille	-12.2802
▁September	-12.2802
▁Titanic	-12.2802
▁UFO	-12.2802
▁Year	-12.2802
▁advienne	-12.2802
▁appeal	-12.2802
▁arriving	-12.2802
▁assassiné	-12.2802
▁bodyguard	-12.2802
▁bouillir	-12.2802
▁champagne	-12.2802
▁collègue	-12.2802
▁compatis	-12.2802
▁compreniez	-12.2802
▁compétent	-12.2802
▁conçu	-12.2802
▁council	-12.2802
▁criticism	-12.2802
▁câlin	-12.2802
▁cérémonie	-12.2802
▁débord	-12.2802
▁défense	-12.2802
▁dépouillé	-12.2802
▁exaggerate	-12.2802
▁falaise	-12.2802
▁fidèle	-12.2802
▁flèche	-12.2802
▁humilié	-12.2802
▁impitoyable	-12.2802
▁independent	-12.2802
▁indiqué	-12.2802
▁infecté	-12.2802
▁injuries	-12.2802
▁kanji	-12.2802
▁licencié	-12.2802
▁located	-12.2802
▁loving	-12.2802
▁maîtrise	-12.2802
▁microscope	-12.2802
▁ménage	-12.2802
▁ménagères	-12.2802
▁oignons	-12.2802
▁opportunist	-12.2802
▁organization	-12.2802
▁overwork	-12.2802
▁permanent	-12.2802
▁pompier	-12.2802
▁pouff	-12.2802
▁pourparlers	-12.2802
▁produce	-12.2802
▁provoqu	-12.2802
▁prudemment	-12.2802
▁prévision	-12.2802
▁représente	-12.2802
▁resemble	-12.2802
▁response	-12.2802
▁reçoi	-12.2802
▁rigoler	-12.2802
▁révéler	-12.2802
▁saxophone	-12.2802
▁sceptique	-12.2802
▁sneaky	-12.2802
▁souffran	-12.2802
▁spaghetti	-12.2802
▁struggled	-12.2802
▁survivant	-12.2802
▁survivor	-12.2802
▁tigre	-12.2802
▁émission	-12.2802
▁étudions	-12.2802
atoeba	-12.2802
pproximat	-12.2802
▁Accroche	-12.2802
▁cramp	-12.2802
▁delicate	-12.2802
▁fluently	-12.2802
▁moururent	-12.2802
▁participé	-12.2802
▁quarrel	-12.2802
▁refrain	-12.2802
▁spontaneous	-12.2802
▁Éloigne	-12.2802
ampoule	-12.2802
étouff	-12.2802
▁chuchot	-12.2802
▁conséquences	-12.2802
▁emball	-12.2802
▁flinch	-12.2802
▁opposite	-12.2802
▁qualifié	-12.2802
▁remué	-12.2802
▁review	-12.2802
▁satisfaisant	-12.2802
▁sournois	-12.2802
▁Voyage	-12.2802
▁bathtub	-12.2802
▁enchanté	-12.2802
▁ministre	-12.2802
▁provisions	-12.2802
▁cabinet	-12.2803
▁frost	-12.2803
▁pillow	-12.2803
▁défend	-12.2803
▁frog	-12.2803
▁inherit	-12.2803
▁cultive	-12.2803
▁Feel	-12.2803
▁manual	-12.2803
▁scarf	-12.2803
enverrai	-12.2803
monition	-12.2803
▁chiot	-12.2803
▁squeeze	-12.2803
▁earned	-12.2803
▁passionnant	-12.2803
▁préserv	-12.2803
▁creative	-12.2803
▁bunch	-12.2803
▁puissance	-12.2803
▁conspi	-12.2803
▁sanguin	-12.2803
▁stove	-12.2803
essaierai	-12.2803
▁divers	-12.2803
▁magie	-12.2803
▁négocier	-12.2803
▁voyons	-12.2803
▁oven	-12.2803
extirp	-12.2803
▁logical	-12.2803
▁crops	-12.2804
▁stiff	-12.2804
effondr	-12.2804
▁Naga	-12.2804
▁drill	-12.2804
▁foirer	-12.2804
Orient	-12.2805
▁érig	-12.2807
enterrement	-12.2807
échelle	-12.2809
▁Divi	-12.2813
▁Nettoy	-12.2825
▁verge	-12.2832
aspirine	-12.2833
pressed	-12.2835
arabe	-12.2844
▁mandat	-12.2845
▁fift	-12.2852
10,000	-12.2856
ashed	-12.2875
uggl	-12.2925
Inde	-12.2943
▁Repos	-12.2955
▁enregistre	-12.2964
▁surviendra	-12.297
damaged	-12.2997
▁sali	-12.2997
▁épargne	-12.3075
torche	-12.3084
affecte	-12.3159
efore	-12.3198
lthy	-12.3235
pparently	-12.3248
▁slip	-12.3283
ccidents	-12.3464
semblé	-12.3473
minded	-12.3489
initi	-12.3596
épargner	-12.3617
▁cooperat	-12.364
▁débrouill	-12.3715
▁développe	-12.3732
▁provi	-12.3736
ough	-12.3741
horreur	-12.3771
proof	-12.3771
wood	-12.3771
phone	-12.3774
▁souven	-12.3775
water	-12.3776
▁suffi	-12.3782
accrocha	-12.3849
▁ingéni	-12.387
affection	-12.3873
▁Pardon	-12.3893
wimming	-12.3893
▁viol	-12.39
▁wrap	-12.3901
▁investigat	-12.3908
vêtement	-12.391
▁acquis	-12.391
▁rejoin	-12.3913
▁Accept	-12.3914
ffronter	-12.3914
▁renouvel	-12.3914
apparaît	-12.3914
▁Dégage	-12.3914
▁Explique	-12.3914
▁bâton	-12.3914
▁emménag	-12.3914
▁kilogram	-12.3914
▁physici	-12.3914
▁victori	-12.3914
appuie	-12.3914
crimination	-12.3914
orthographe	-12.3914
romène	-12.3914
▁Colomb	-12.3914
▁Comparé	-12.3914
▁Conduis	-12.3914
▁Congress	-12.3914
▁Disneyland	-12.3914
▁Efforce	-12.3914
▁Honesty	-12.3914
▁Human	-12.3914
▁Luckily	-12.3914
▁Obviously	-12.3914
▁Okinawa	-12.3914
▁Prépare	-12.3914
▁Science	-12.3914
▁Vienne	-12.3914
▁Wednesday	-12.3914
▁acquired	-12.3914
▁aggressive	-12.3914
▁agressif	-12.3914
▁astucieux	-12.3914
▁augmenté	-12.3914
▁aveuglé	-12.3914
▁awkward	-12.3914
▁banlieue	-12.3914
▁britannique	-12.3914
▁cadavre	-12.3914
▁cambrioleur	-12.3914
▁ceremony	-12.3914
▁chemistry	-12.3914
▁chimney	-12.3914
▁chopsticks	-12.3914
▁chômage	-12.3914
▁communauté	-12.3914
▁compassion	-12.3914
▁compréhension	-12.3914
▁conduirai	-12.3914
▁cricket	-12.3914
▁crédule	-12.3914
▁curiosity	-12.3914
▁devastated	-12.3914
▁devron	-12.3914
▁définitive	-12.3914
▁démocratie	-12.3914
▁démodé	-12.3914
▁dénué	-12.3914
▁dévisage	-12.3914
▁effrayant	-12.3914
▁endommagé	-12.3914
▁ennuyeuse	-12.3914
▁expulsé	-12.3914
▁extraverti	-12.3914
▁fiançailles	-12.3914
▁financier	-12.3914
▁fugiti	-12.3914
▁gentiment	-12.3914
▁grammaire	-12.3914
▁indiqua	-12.3914
▁indoors	-12.3914
▁introvert	-12.3914
▁investment	-12.3914
▁irrelevant	-12.3914
▁kidnapped	-12.3914
▁kilometers	-12.3914
▁licencie	-12.3914
▁logiciel	-12.3914
▁manipul	-12.3914
▁menaça	-12.3914
▁milliard	-12.3914
▁motivated	-12.3914
▁onéreuse	-12.3914
▁opponent	-12.3914
▁otherwise	-12.3914
▁physical	-12.3914
▁piégé	-12.3914
▁pommier	-12.3914
▁postcard	-12.3914
▁prohibited	-12.3914
▁précieuse	-12.3914
▁railroad	-12.3914
▁refroidi	-12.3914
▁régulier	-12.3914
▁sculpt	-12.3914
▁sleeve	-12.3914
▁software	-12.3914
▁souffert	-12.3914
▁souffla	-12.3914
▁souffrir	-12.3914
▁spontané	-12.3914
▁surmonter	-12.3914
▁survenait	-12.3914
▁trempé	-12.3914
▁trouvions	-12.3914
▁twelve	-12.3914
▁typical	-12.3914
▁wandered	-12.3914
▁whistling	-12.3914
▁énormément	-12.3914
▁Black	-12.3914
▁Strict	-12.3914
▁affreuse	-12.3914
▁bazar	-12.3914
▁casquette	-12.3914
▁dawn	-12.3914
▁espérait	-12.3914
▁exclu	-12.3914
▁illustr	-12.3914
▁laptop	-12.3914
▁launched	-12.3914
▁métaux	-12.3914
▁rattrapé	-12.3914
▁rédige	-12.3914
▁urbain	-12.3914
▁cierge	-12.3914
▁malchance	-12.3914
▁unlocked	-12.3914
hereabouts	-12.3914
inflation	-12.3914
▁distributeur	-12.3914
▁espéré	-12.3914
▁renew	-12.3914
▁Great	-12.3914
▁conform	-12.3914
▁fermier	-12.3914
▁fertile	-12.3914
▁joigne	-12.3914
▁largué	-12.3914
▁pourboire	-12.3914
▁seventeen	-12.3914
▁tranche	-12.3914
▁Brésil	-12.3914
▁nightmare	-12.3914
▁remote	-12.3914
▁trunk	-12.3914
▁000	-12.3914
▁charbon	-12.3914
▁marron	-12.3914
▁smashed	-12.3914
▁Tower	-12.3914
▁baguettes	-12.3914
▁carrots	-12.3914
▁psychologi	-12.3914
▁battery	-12.3914
▁deposit	-12.3914
▁observant	-12.3914
calorie	-12.3914
▁rationnel	-12.3914
▁retenti	-12.3914
▁infecte	-12.3914
amènerai	-12.3914
▁matériel	-12.3914
▁disputé	-12.3914
▁insects	-12.3914
▁vacant	-12.3914
▁snack	-12.3914
▁blink	-12.3914
▁sidéré	-12.3914
▁biologi	-12.3914
▁rational	-12.3914
▁lustre	-12.3914
▁extend	-12.3914
▁Count	-12.3914
▁soulign	-12.3914
▁capturé	-12.3914
▁découp	-12.3914
▁saumon	-12.3914
exercer	-12.3914
▁bottes	-12.3914
▁pirate	-12.3914
▁imitate	-12.3915
negotia	-12.3915
▁salée	-12.3915
▁prenant	-12.3915
▁initial	-12.3916
▁jumelle	-12.3916
▁intimidate	-12.3917
▁pencha	-12.392
arbor	-12.3926
▁désobéi	-12.3927
▁critiqu	-12.3927
▁infini	-12.3931
ficient	-12.3936
▁soign	-12.3941
▁investi	-12.3951
inventa	-12.3951
satisfaction	-12.3953
ingénieur	-12.3957
▁Reconnais	-12.396
▁parviendra	-12.3971
ammed	-12.3978
elieve	-12.4041
alcoholic	-12.4062
▁établi	-12.4172
effra	-12.4189
ipping	-12.4275
predictable	-12.431
viendrai	-12.4345
rolled	-12.4369
apprendrai	-12.441
ignora	-12.4575
architecte	-12.4679
contracté	-12.4695
▁resi	-12.4772
▁gên	-12.4844
cientists	-12.4848
objection	-12.5021
original	-12.5021
book	-12.5022
thirty	-12.5023
ensemble	-12.5023
weigh	-12.5026
▁receiv	-12.5039
▁consacre	-12.508
ésormais	-12.5128
▁impress	-12.5141
▁veille	-12.5147
witch	-12.5151
▁actuel	-12.5157
▁bâti	-12.5158
escalier	-12.516
introdui	-12.516
▁perform	-12.5163
appiness	-12.5163
▁display	-12.5164
ennuyai	-12.5164
entreprend	-12.5164
évalu	-12.5164
▁Allemand	-12.5164
▁Christian	-12.5164
▁concurrence	-12.5164
▁contradict	-12.5164
▁encounter	-12.5164
▁fulfill	-12.5164
▁hallucin	-12.5164
▁reconsider	-12.5164
▁symphoni	-12.5164
▁trigger	-12.5164
Oxford	-12.5164
ahjong	-12.5164
emocracy	-12.5164
empoisonn	-12.5164
enthousiasme	-12.5164
héroïne	-12.5164
hôtesse	-12.5164
interprète	-12.5164
interrompez	-12.5164
monstration	-12.5164
oxygène	-12.5164
écureuil	-12.5164
évanouir	-12.5164
▁August	-12.5164
▁Biwa	-12.5164
▁Britain	-12.5164
▁California	-12.5164
▁Californie	-12.5164
▁Congrès	-12.5164
▁Darwin	-12.5164
▁December	-12.5164
▁Discutons	-12.5164
▁Express	-12.5164
▁FBI	-12.5164
▁Finissons	-12.5164
▁Mexico	-12.5164
▁Portugal	-12.5164
▁Repren	-12.5164
▁Russie	-12.5164
▁Réfléchis	-12.5164
▁Sleep	-12.5164
▁Tuesday	-12.5164
▁Vienna	-12.5164
▁affreux	-12.5164
▁astucieuse	-12.5164
▁atmosphere	-12.5164
▁bouquin	-12.5164
▁bêtise	-12.5164
▁cambriolé	-12.5164
▁catalogue	-12.5164
▁cauchemar	-12.5164
▁cicatrice	-12.5164
▁coiffure	-12.5164
▁collapsed	-12.5164
▁compatible	-12.5164
▁conflit	-12.5164
▁consommation	-12.5164
▁convenait	-12.5164
▁craindre	-12.5164
▁culpabilité	-12.5164
▁defense	-12.5164
▁diagonal	-12.5164
▁diminué	-12.5164
▁désagréable	-12.5164
▁développé	-12.5164
▁déverrouillé	-12.5164
▁européen	-12.5164
▁exemplaire	-12.5164
▁faculté	-12.5164
▁familière	-12.5164
▁flamme	-12.5164
▁foyer	-12.5164
▁hacksaw	-12.5164
▁huîtres	-12.5164
▁identify	-12.5164
▁immobile	-12.5164
▁inappropriate	-12.5164
▁inevitable	-12.5164
▁informatique	-12.5164
▁interpreter	-12.5164
▁janvier	-12.5164
▁koala	-12.5164
▁mercredi	-12.5164
▁mobilier	-12.5164
▁médaille	-12.5164
▁necklace	-12.5164
▁observé	-12.5164
▁obsédé	-12.5164
▁opportunities	-12.5164
▁overslept	-12.5164
▁oxygen	-12.5164
▁oysters	-12.5164
▁pajamas	-12.5164
▁paralysé	-12.5164
▁paranoid	-12.5164
▁paranoïaque	-12.5164
▁plaignent	-12.5164
▁plongé	-12.5164
▁practicing	-12.5164
▁prisonnières	-12.5164
▁procédé	-12.5164
▁prononciation	-12.5164
▁préjugés	-12.5164
▁puppy	-12.5164
▁pyjama	-12.5164
▁pâli	-12.5164
▁raffiné	-12.5164
▁religieux	-12.5164
▁rotten	-12.5164
▁récompense	-12.5164
▁réconfort	-12.5164
▁rédigé	-12.5164
▁régulièrement	-12.5164
▁répandu	-12.5164
▁rêva	-12.5164
▁schizophr	-12.5164
▁silhouette	-12.5164
▁specific	-12.5164
▁spinach	-12.5164
▁squirrel	-12.5164
▁suburbs	-12.5164
▁sunburn	-12.5164
▁séduisant	-12.5164
▁technologie	-12.5164
▁termina	-12.5164
▁terrifiant	-12.5164
▁thieves	-12.5164
▁tomatoes	-12.5164
▁toothache	-12.5164
▁traduis	-12.5164
▁troops	-12.5164
▁vegetarian	-12.5164
▁végétarien	-12.5164
▁échantillon	-12.5164
▁écharpe	-12.5164
▁épinards	-12.5164
Amazon	-12.5164
exploit	-12.5164
▁Pratique	-12.5164
▁Texas	-12.5164
▁agenda	-12.5164
▁folk	-12.5164
▁military	-12.5164
▁reputation	-12.5164
▁reward	-12.5164
▁royal	-12.5164
▁sunrise	-12.5164
▁veillé	-12.5164
▁Berlin	-12.5164
▁Finally	-12.5164
▁Napol	-12.5164
▁brille	-12.5164
▁cédé	-12.5164
▁déprimant	-12.5164
▁essuy	-12.5164
▁férié	-12.5164
▁registr	-12.5164
▁shift	-12.5164
▁égaux	-12.5164
communicate	-12.5164
thiopi	-12.5164
▁chief	-12.5164
▁folie	-12.5164
▁fuel	-12.5164
▁olives	-12.5164
▁spilled	-12.5164
▁heaven	-12.5164
▁privil	-12.5164
▁shaking	-12.5164
▁cabane	-12.5164
▁routine	-12.5164
▁Spend	-12.5164
▁détaillée	-12.5164
abattre	-12.5164
obbing	-12.5164
▁bouchon	-12.5164
▁pink	-12.5164
▁rifle	-12.5164
formuler	-12.5164
▁divine	-12.5164
▁épée	-12.5164
▁spatia	-12.5164
▁motivé	-12.5164
▁pouce	-12.5164
▁plead	-12.5164
▁surmené	-12.5164
obtint	-12.5164
▁region	-12.5164
▁reparti	-12.5164
▁entitle	-12.5164
▁secoué	-12.5164
▁puéril	-12.5164
Atlanti	-12.5164
▁Rhin	-12.5165
▁racist	-12.5165
▁jugé	-12.5165
scape	-12.5165
▁métal	-12.5165
▁official	-12.5166
▁brake	-12.5166
▁faithful	-12.5166
▁nettoie	-12.5167
investissement	-12.517
▁recouvr	-12.5172
▁mettrai	-12.5173
▁déshabill	-12.5175
wrapped	-12.5178
nombr	-12.5179
orgue	-12.5194
▁sympathi	-12.5196
extraordinaire	-12.521
intégr	-12.5216
Asie	-12.528
▁formalit	-12.5295
▁parviendron	-12.5457
▁Permet	-12.5481
identifier	-12.5557
éprouva	-12.5564
▁survienne	-12.5629
▁justifie	-12.5644
▁fabriqué	-12.5715
▁skipp	-12.5854
trip	-12.5911
adopter	-12.6035
interruption	-12.6183
▁liquid	-12.6241
viendront	-12.6264
▁biscuit	-12.6349
▁cultur	-12.635
échange	-12.6406
branché	-12.6433
infirmière	-12.6449
support	-12.645
K	-13.0113
U	-13.0116
É	-13.0117
/	-13.2759
‘	-13.6092
&	-14.1092
)	-14.1092
­	-14.1092
‽	-14.1092
Â	-14.1092
«	-15.0962
ö	-15.1073
(	-15.1074
Ô	-15.1075
Z	-15.1076
$	-15.1077
ë	-15.1078
5	-15.1079
Ê	-15.108
œ	-15.1081
Ç	-15.1082
â	-15.1083
î	-15.1084
û	-15.1085
ç	-15.1086
Q	-15.1087
Y	-15.1088
L	-15.1089
è	-15.109
q	-15.1091
+	-15.1092
ò	-15.1092
ú	-15.1092
а	-15.1092
‐	-15.1092
–	-15.1092
€	-15.1092
v	-15.1092
~	-15.1092
